<unk>	0
<s>	0
</s>	0
▁	-2.95211
▁что	-3.29751
?	-3.40343
а	-3.83767
▁кто	-4.16509
и	-4.187
е	-4.23352
▁в	-4.34732
▁я	-4.35107
▁это	-4.37478
ся	-4.46885
▁на	-4.57465
,	-4.57737
▁как	-4.59434
▁не	-4.67006
▁ты	-4.67138
у	-4.67742
о	-4.80992
ы	-4.88565
▁,	-4.97273
й	-5.01039
▁кого	-5.13665
т	-5.16612
▁чем	-5.1929
▁с	-5.21596
я	-5.26587
м	-5.28607
▁а	-5.38032
ом	-5.55259
л	-5.60051
ю	-5.67187
ет	-5.68382
▁у	-5.69915
▁какой	-5.77817
ов	-5.78126
▁и	-5.83077
▁меня	-5.8459
▁.	-5.84752
▁такое	-5.85727
▁по	-5.87006
▁зовут	-5.88168
ой	-5.88587
ая	-5.8895
-	-5.9414
х	-5.9514
▁имеет	-6.00724
▁где	-6.0429
▁какие	-6.05666
▁к	-6.07338
ь	-6.11752
▁из	-6.12478
▁тебя	-6.1721
▁какая	-6.18615
ую	-6.23365
▁за	-6.23985
ка	-6.31453
ть	-6.32863
ешь	-6.33729
▁"	-6.34159
▁почему	-6.36778
▁мне	-6.40373
▁-	-6.40916
▁есть	-6.41973
▁такой	-6.44951
▁люблю	-6.45082
ется	-6.45498
▁от	-6.52157
▁сколько	-6.58487
▁ли	-6.58879
ось	-6.63107
ами	-6.67541
ми	-6.67843
ась	-6.69184
▁так	-6.74867
▁какое	-6.74991
▁тебе	-6.75812
ей	-6.76906
▁о	-6.79595
▁для	-6.80273
▁посмотрел	-6.82989
▁куда	-6.85167
"	-6.86455
▁да	-6.86938
▁там	-6.87097
▁ищет	-6.90391
ый	-6.90452
в	-6.90464
ись	-6.9108
го	-6.9113
ки	-6.91939
▁когда	-6.94711
ок	-6.95234
▁будет	-6.95539
▁тот	-6.96919
▁вообще	-6.98466
▁про	-6.99338
▁любишь	-6.99929
с	-7.02297
к	-7.03157
▁кем	-7.03748
то	-7.07016
▁нет	-7.08195
▁нравится	-7.08614
▁сейчас	-7.0903
ют	-7.10359
▁чего	-7.10534
▁при	-7.10666
▁же	-7.11948
▁хорошо	-7.13277
д	-7.1526
▁быстро	-7.15532
▁был	-7.16248
ло	-7.17628
ем	-7.1996
ого	-7.19997
▁он	-7.20513
▁тут	-7.20647
ный	-7.2109
ла	-7.21803
ная	-7.2189
▁под	-7.23356
ются	-7.28389
р	-7.28535
▁очень	-7.28816
▁вы	-7.29259
▁ладно	-7.29328
является	-7.29983
ку	-7.30943
▁каким	-7.31519
ли	-7.32508
▁здесь	-7.32905
▁минут	-7.32926
▁если	-7.33404
▁хочу	-7.35456
ые	-7.37217
лось	-7.39245
ж	-7.40581
▁лет	-7.42151
ные	-7.43033
ое	-7.44056
▁человек	-7.44571
н	-7.45021
▁ждет	-7.4553
ен	-7.46931
▁всегда	-7.48622
п	-7.49065
▁любит	-7.49327
▁до	-7.49461
▁была	-7.50762
▁ну	-7.51931
▁покачал	-7.52174
▁раз	-7.52708
ит	-7.53027
▁зачем	-7.53923
бы	-7.54256
▁то	-7.55643
▁голову	-7.56415
▁все	-7.5645
ш	-7.56456
да	-7.56951
лась	-7.58536
▁имеют	-7.5887
на	-7.59879
▁кому	-7.59951
з	-7.60258
▁держит	-7.6033
▁было	-7.60384
но	-7.60607
▁во	-7.61067
ник	-7.61255
б	-7.61259
▁или	-7.62562
тоже	-7.62722
▁потому	-7.63008
▁начал	-7.63314
▁2	-7.64247
▁свое	-7.65284
▁живет	-7.65448
▁отлично	-7.65575
▁могу	-7.65911
▁стоит	-7.66223
▁результат	-7.66938
▁поднял	-7.67021
▁хочешь	-7.67371
▁рядом	-7.68283
▁его	-7.68288
▁часов	-7.68565
▁3	-7.68903
ах	-7.69141
▁внимательно	-7.69556
ст	-7.70923
ную	-7.71026
▁взглянул	-7.71476
▁занимается	-7.71593
ной	-7.71983
▁без	-7.73092
▁работает	-7.74287
▁1	-7.74356
▁пол	-7.74554
▁сегодня	-7.74562
▁мо	-7.75989
▁5	-7.76069
▁уже	-7.77043
▁но	-7.774
▁нравятся	-7.77401
▁долго	-7.77624
▁глаза	-7.77648
▁об	-7.77732
ев	-7.79134
▁со	-7.79755
ист	-7.80487
за	-7.81156
▁4	-7.81705
▁еще	-7.82781
ик	-7.82864
▁время	-7.83085
лись	-7.8319
ф	-7.84416
ец	-7.84735
▁8	-7.85787
▁чему	-7.85993
▁6	-7.86101
ий	-7.86881
▁получится	-7.87612
▁обеспечивает	-7.88022
▁люди	-7.89533
ться	-7.89545
!	-7.89644
▁имя	-7.90046
▁7	-7.90097
▁какого	-7.90247
▁дом	-7.91794
▁делает	-7.92855
ство	-7.92905
ишь	-7.94014
ин	-7.94414
▁день	-7.94923
вою	-7.95172
▁идет	-7.95336
▁знаю	-7.96078
▁можно	-7.96225
▁мама	-7.97406
ч	-7.97432
ра	-7.97688
▁город	-7.98301
▁находится	-7.98562
сь	-7.98873
▁9	-7.99003
▁хозяев	-8.0054
ное	-8.00668
▁постоянно	-8.00845
ни	-8.00906
▁легко	-8.01647
▁больше	-8.02091
▁хозяин	-8.02869
▁малыш	-8.03189
▁пере	-8.03732
юсь	-8.03973
▁надо	-8.04192
кой	-8.04197
▁живу	-8.04538
▁ждут	-8.04625
▁часа	-8.04703
▁они	-8.04879
лся	-8.05817
▁стоял	-8.06339
▁обладает	-8.06405
▁твое	-8.06599
ных	-8.07404
ва	-8.07955
▁сделал	-8.08168
г	-8.09312
ам	-8.10152
▁бы	-8.10474
▁миша	-8.11288
он	-8.11488
▁медленно	-8.11669
▁такая	-8.12059
ят	-8.1231
ек	-8.12343
сть	-8.12418
▁хм	-8.12629
▁смотрел	-8.1336
га	-8.13941
▁подчеркивает	-8.14441
▁мы	-8.14601
▁п	-8.1474
▁может	-8.15313
▁тво	-8.15785
▁машина	-8.17939
▁буд	-8.18207
▁отдельно	-8.18532
▁умею	-8.18764
ного	-8.1882
▁место	-8.18837
▁ребята	-8.19151
▁много	-8.19644
▁ее	-8.19889
ер	-8.19968
ых	-8.20573
▁девочка	-8.20789
▁только	-8.21017
шь	-8.2221
▁работу	-8.22953
▁свой	-8.2307
▁мое	-8.23544
▁ищут	-8.23892
ко	-8.24
ша	-8.24215
▁такого	-8.24617
▁оглядел	-8.24832
ский	-8.24856
▁дверь	-8.25026
ить	-8.25105
ил	-8.25209
▁жизнь	-8.25682
ор	-8.25815
▁свет	-8.27536
▁своих	-8.27596
▁можешь	-8.27731
▁она	-8.27838
▁стал	-8.28427
ым	-8.28836
ри	-8.28942
▁верно	-8.28964
▁смотрит	-8.29449
▁три	-8.29647
ина	-8.30303
▁лицо	-8.30356
не	-8.30387
▁таня	-8.30425
▁оста	-8.31007
▁работ	-8.31203
ние	-8.31356
▁девушка	-8.32373
▁специалист	-8.32451
▁молча	-8.32545
▁их	-8.32675
▁плохо	-8.33045
ение	-8.33087
ность	-8.34011
вал	-8.34171
▁скажи	-8.34626
▁дети	-8.34648
▁вопросы	-8.34827
▁закрывает	-8.35688
▁откуда	-8.35732
▁фигур	-8.35991
ешься	-8.36038
сти	-8.3657
ля	-8.36707
▁кот	-8.36916
▁стать	-8.36918
▁после	-8.37267
▁вызывает	-8.37306
ль	-8.37523
▁сам	-8.38377
▁нужно	-8.38388
▁открыл	-8.3906
ость	-8.39174
▁мой	-8.39867
▁женщина	-8.40396
▁испуганн	-8.41747
▁два	-8.41765
▁работаю	-8.41768
ке	-8.41853
ным	-8.41927
▁него	-8.41987
ня	-8.41989
▁каких	-8.42086
ан	-8.42537
▁людей	-8.42643
▁мир	-8.42802
▁равно	-8.4293
▁над	-8.42973
▁0	-8.43057
▁предлагает	-8.43356
ков	-8.43508
▁ира	-8.44291
ти	-8.44508
ения	-8.44547
▁компьютер	-8.45005
▁вид	-8.45018
▁года	-8.45224
▁игры	-8.46123
▁уставил	-8.46313
их	-8.47147
▁везде	-8.47274
▁эта	-8.475
▁один	-8.47888
▁какими	-8.47899
▁свои	-8.48008
▁быть	-8.48012
са	-8.4802
▁делать	-8.48113
▁играю	-8.48329
чик	-8.48348
▁вопрос	-8.48418
ос	-8.48506
▁чай	-8.48968
щик	-8.49214
▁дела	-8.49686
▁принес	-8.49804
ния	-8.50024
▁вот	-8.50174
▁обычно	-8.50442
▁народ	-8.50444
▁буду	-8.50535
▁след	-8.51077
тся	-8.5113
▁были	-8.51285
▁взял	-8.51966
▁снова	-8.52438
▁часто	-8.52598
лю	-8.53172
▁друг	-8.534
▁школе	-8.54085
▁подняла	-8.54376
▁продается	-8.54436
▁цвет	-8.54573
▁отличает	-8.546
▁вопросительн	-8.54669
▁мать	-8.54864
▁постепенно	-8.54867
▁какую	-8.5491
▁учусь	-8.55112
ре	-8.55181
▁лежит	-8.55212
▁новы	-8.55949
▁часть	-8.56304
▁мальчик	-8.56407
▁папа	-8.56426
ба	-8.56708
▁утром	-8.56771
▁знаешь	-8.56792
▁никог	-8.5709
▁ни	-8.57223
▁язык	-8.57367
▁человека	-8.57424
▁опустил	-8.57873
▁кофе	-8.58262
▁играть	-8.58277
нибудь	-8.58522
▁поглядел	-8.58522
цы	-8.58527
▁лес	-8.58568
ится	-8.58847
▁области	-8.58988
ве	-8.59038
▁называется	-8.59059
▁сразу	-8.59459
▁жена	-8.59622
▁удивленно	-8.59819
▁музыку	-8.59884
▁солнце	-8.60112
▁вчера	-8.60171
▁дома	-8.60529
рез	-8.61189
▁наши	-8.61329
▁домой	-8.62172
▁детей	-8.62329
▁оплачивает	-8.62337
▁вика	-8.62356
ская	-8.63256
де	-8.63757
об	-8.64158
▁ветер	-8.64176
▁теперь	-8.65135
▁суп	-8.65403
▁деньги	-8.66155
▁поддерживает	-8.66621
поминает	-8.66678
▁хочет	-8.66751
▁давай	-8.67645
▁сзади	-8.6778
пр	-8.68878
▁зовет	-8.68937
▁резко	-8.69355
▁всего	-8.69377
▁создает	-8.69401
тель	-8.69625
ду	-8.69853
▁включает	-8.69955
▁показывает	-8.70399
ностью	-8.70558
▁оказал	-8.70649
▁тихо	-8.70678
▁вода	-8.70919
▁автобус	-8.70982
▁капитан	-8.71552
▁сидел	-8.71616
▁платье	-8.71826
▁телефон	-8.71882
▁охватил	-8.71905
че	-8.72011
▁красиво	-8.72205
▁новый	-8.72415
▁перед	-8.72472
▁ничего	-8.72487
▁индивидуально	-8.72905
▁каждый	-8.72958
щ	-8.73511
пять	-8.73525
▁включил	-8.73854
▁появил	-8.73868
▁жизни	-8.74238
▁времени	-8.74295
▁просто	-8.74357
▁нас	-8.74366
▁отец	-8.74603
би	-8.75
▁ждал	-8.75059
▁производит	-8.75147
▁увидел	-8.75533
▁начинает	-8.7594
▁привет	-8.76301
▁ответ	-8.7633
▁сидит	-8.76454
▁процесс	-8.77125
▁внезапно	-8.77345
▁плюс	-8.77419
▁кстати	-8.7756
▁машину	-8.78197
▁характер	-8.78275
▁дело	-8.78407
▁10	-8.78429
▁немного	-8.78502
▁прошло	-8.7883
чи	-8.79766
▁г	-8.79768
▁внутри	-8.79791
▁год	-8.79811
ова	-8.80063
ц	-8.80163
▁любил	-8.80183
▁стало	-8.80651
ши	-8.81157
▁собака	-8.81355
▁19	-8.8136
▁живешь	-8.8151
дер	-8.81732
▁руки	-8.81911
▁пошел	-8.82197
▁гор	-8.82244
▁становит	-8.82268
▁работаешь	-8.82449
▁себя	-8.82464
тер	-8.82937
ро	-8.83055
▁вычес	-8.83239
▁форму	-8.83877
▁сверх	-8.84117
лен	-8.84305
▁письмо	-8.84555
мер	-8.84771
▁оставил	-8.84856
▁боишься	-8.85012
▁родителей	-8.85161
▁план	-8.85245
▁сильно	-8.85266
▁руку	-8.85312
▁ведь	-8.85578
э	-8.85866
▁сделать	-8.86092
ру	-8.86143
ком	-8.86287
▁муж	-8.86449
▁автомобиль	-8.86552
вод	-8.87123
▁году	-8.87239
▁таки	-8.87396
▁давно	-8.8745
▁материал	-8.87521
▁мои	-8.88113
ров	-8.88309
▁боюсь	-8.88419
ед	-8.88568
▁рост	-8.88601
▁действия	-8.88716
▁вес	-8.88726
ские	-8.8875
ры	-8.88945
▁знает	-8.89307
из	-8.89449
▁головой	-8.89568
▁стол	-8.89691
▁говоря	-8.89973
▁произошло	-8.90225
▁дорога	-8.90315
▁боль	-8.9066
▁фильм	-8.90829
ча	-8.90973
▁робот	-8.9107
ди	-8.91175
▁глаз	-8.91385
▁сказал	-8.91548
▁стар	-8.91605
▁рас	-8.91715
до	-8.91736
▁получается	-8.91846
▁выполнит	-8.92036
▁ведет	-8.92927
▁само	-8.93186
▁кошки	-8.93218
ном	-8.93275
▁сердце	-8.93553
▁че	-8.93597
▁час	-8.93653
▁своим	-8.93689
▁учишься	-8.93718
▁ваш	-8.93733
▁любо	-8.93827
▁студент	-8.93938
▁потом	-8.9397
▁настроение	-8.94104
▁модель	-8.94176
▁предпочитаю	-8.9438
▁прав	-8.94701
ман	-8.94828
▁зло	-8.94912
▁собаки	-8.95026
▁свойственны	-8.95191
▁растерянно	-8.95217
▁работа	-8.95237
▁фиксирует	-8.95508
▁улыбнулся	-8.95556
▁цен	-8.95628
тор	-8.95721
▁александр	-8.95765
▁виктор	-8.95883
во	-8.95951
ну	-8.96015
ошел	-8.96422
▁полу	-8.96464
▁делают	-8.96519
▁пред	-8.96555
▁осмотрел	-8.96658
▁компания	-8.96743
▁принимает	-8.96839
▁слова	-8.96956
▁комнату	-8.96967
▁оглянулся	-8.97084
▁мужчина	-8.97112
▁задумчиво	-8.97253
▁ребенка	-8.97353
ской	-8.9741
▁дает	-8.97412
▁собак	-8.97528
▁завтра	-8.978
▁букв	-8.9792
▁лежал	-8.98074
▁молодой	-8.98182
▁любят	-8.98295
▁кон	-8.9856
▁запах	-8.98652
▁шел	-8.98683
жа	-8.98771
▁иван	-8.98967
▁машины	-8.98998
▁помощь	-8.99344
▁бес	-8.99356
▁автоматически	-8.99509
▁число	-8.99774
зи	-8.99774
▁андрей	-8.99924
▁пришел	-9.00033
▁кор	-9.00085
му	-9.00449
▁бабушка	-9.00459
▁класс	-9.00569
▁купил	-9.00643
▁образ	-9.00653
ющий	-9.00939
▁большой	-9.00964
▁них	-9.01274
▁нашел	-9.01294
▁автор	-9.01305
минуты	-9.01404
▁марина	-9.01487
▁бросил	-9.01604
▁стала	-9.01794
▁четыре	-9.01907
ны	-9.02001
▁заряд	-9.02271
па	-9.02594
ель	-9.02597
▁гости	-9.03027
▁дорогу	-9.0316
▁достал	-9.03314
▁играет	-9.03599
▁система	-9.03601
ился	-9.03625
▁олег	-9.03841
▁весело	-9.0416
▁каком	-9.04417
ями	-9.04581
ща	-9.04595
▁открывает	-9.04654
итель	-9.04778
▁авто	-9.04868
▁видел	-9.0489
ще	-9.04903
▁систем	-9.04948
▁покрытие	-9.05278
▁кошка	-9.05291
меешь	-9.0544
▁том	-9.05543
▁игра	-9.0563
▁пожалуйста	-9.05839
▁громко	-9.05848
▁ноги	-9.05928
▁девочки	-9.06024
▁школу	-9.06399
▁пять	-9.06433
▁характерны	-9.0675
▁бел	-9.06763
▁волосы	-9.06778
▁сказать	-9.0682
ница	-9.06906
ел	-9.06971
гу	-9.071
▁лучше	-9.07196
▁самы	-9.0721
▁ночью	-9.07227
чь	-9.07272
нов	-9.07341
▁занимаюсь	-9.07373
▁правда	-9.0746
▁дал	-9.07618
▁встретил	-9.07698
▁еду	-9.07721
изм	-9.07815
▁тело	-9.07963
▁антон	-9.08109
▁котята	-9.08168
▁занима	-9.08256
гр	-9.08276
▁россии	-9.08295
▁классе	-9.08342
али	-9.08664
кин	-9.0873
▁развивает	-9.08749
▁приносит	-9.0887
▁12	-9.08938
▁семь	-9.09232
▁20	-9.09396
▁поэт	-9.09569
▁стен	-9.09634
лин	-9.09642
▁мясо	-9.09859
▁тобой	-9.09861
▁мастер	-9.09862
▁кажд	-9.09877
▁придумал	-9.10032
▁конечно	-9.10078
▁мою	-9.101
▁занимаешь	-9.1026
▁парень	-9.1027
▁зал	-9.1029
бригада	-9.10307
▁дизайн	-9.10388
▁сын	-9.10482
ож	-9.1053
▁принадлежащи	-9.1054
▁получил	-9.10612
▁вверх	-9.10685
▁числа	-9.10789
▁мечта	-9.10923
▁алиса	-9.11269
сколько	-9.11284
▁самолет	-9.11605
▁дождь	-9.11624
шка	-9.1165
▁одна	-9.11772
▁сделала	-9.11777
по	-9.11799
ского	-9.11972
▁сережа	-9.11978
▁вещи	-9.12266
▁цены	-9.12308
▁вас	-9.12678
▁шла	-9.12874
живут	-9.12976
▁образом	-9.13241
йти	-9.13275
▁слушал	-9.13285
▁вечером	-9.13296
▁болит	-9.13323
▁первый	-9.13441
▁роман	-9.13702
▁урок	-9.13713
си	-9.13728
▁двух	-9.13817
▁лев	-9.13874
▁слово	-9.14001
▁ним	-9.14012
ис	-9.14193
▁соответствует	-9.14208
ар	-9.14326
▁ход	-9.14342
▁ч	-9.14373
▁эт	-9.14422
▁одно	-9.14506
ходишь	-9.14547
▁услуги	-9.14572
нул	-9.1458
▁между	-9.14617
▁известно	-9.1475
▁вскинул	-9.14819
▁та	-9.14976
▁компьютерные	-9.15142
▁играл	-9.15147
▁валя	-9.15198
▁михаил	-9.15228
▁фильмы	-9.1558
▁книгу	-9.15622
▁глянул	-9.15845
▁выполняет	-9.15866
▁должен	-9.16052
▁животных	-9.16071
▁слове	-9.1637
▁пор	-9.1688
▁18	-9.16893
▁продает	-9.17
вар	-9.1739
▁две	-9.17431
▁состояние	-9.17513
▁эффект	-9.17927
▁тепло	-9.18092
▁строго	-9.18164
▁секрет	-9.18293
▁борис	-9.18387
▁пре	-9.18512
▁весь	-9.18586
хожу	-9.18631
ятся	-9.18704
▁15	-9.18791
▁мед	-9.18796
▁обожа	-9.1889
▁глядел	-9.1899
▁профессор	-9.1899
▁вниз	-9.19124
▁украин	-9.19196
▁суд	-9.19312
▁футбол	-9.19473
▁э	-9.19681
▁)	-9.19702
▁обожаю	-9.19739
▁билет	-9.19784
▁размер	-9.19809
▁компании	-9.19837
▁сергей	-9.19865
▁почти	-9.19902
▁опыт	-9.19931
▁ребенок	-9.20006
▁всех	-9.20122
▁заканчивает	-9.20142
▁алексей	-9.20385
▁определяет	-9.20411
▁умножи	-9.20493
▁вызвал	-9.20493
▁собираюсь	-9.20502
▁встречает	-9.20542
▁дед	-9.20662
▁директор	-9.20709
▁ко	-9.20733
едят	-9.20838
▁количество	-9.21361
сп	-9.21468
▁воду	-9.21531
▁цель	-9.21547
▁назад	-9.21583
▁наша	-9.21649
▁стекло	-9.21716
ич	-9.21738
▁бар	-9.21756
▁снег	-9.21998
▁увлекаюсь	-9.22018
юду	-9.22206
сс	-9.22318
▁способ	-9.22319
▁прекрасно	-9.22518
▁принял	-9.22561
▁небольшой	-9.22677
▁совсем	-9.22899
▁обговарива	-9.22911
▁поставил	-9.22946
даже	-9.23022
▁нужен	-9.23121
ыми	-9.2317
▁чатбот	-9.23261
▁растет	-9.23569
це	-9.23608
округ	-9.23753
ги	-9.23817
▁музыка	-9.23897
ур	-9.23924
▁дня	-9.23983
▁срочно	-9.24013
▁группа	-9.24229
▁отношусь	-9.24237
▁переглянул	-9.24462
ун	-9.24493
▁звук	-9.24608
▁ткань	-9.24687
▁рублей	-9.24691
▁поговорить	-9.2476
▁максим	-9.25026
ье	-9.25049
▁видишь	-9.2524
▁батаре	-9.25322
▁говорить	-9.25363
▁работать	-9.25439
▁магазин	-9.25656
▁команд	-9.25785
▁направил	-9.25821
▁море	-9.2586
▁этого	-9.2587
▁де	-9.25932
▁вышел	-9.25938
▁знал	-9.25957
▁решение	-9.25984
же	-9.25989
▁брат	-9.25995
▁хотел	-9.26064
▁ла	-9.26105
▁умер	-9.2612
▁проживает	-9.26143
▁делал	-9.26145
▁ненавижу	-9.26278
▁большие	-9.26302
▁мозг	-9.26505
иться	-9.2653
▁проходит	-9.2694
▁пес	-9.26975
▁11	-9.27
▁нужна	-9.27003
▁ш	-9.27045
ными	-9.27281
▁сложить	-9.27289
▁котик	-9.27307
▁сел	-9.27482
▁спать	-9.27486
▁набирает	-9.27662
▁дым	-9.27767
▁жить	-9.27815
▁собирает	-9.28026
пер	-9.28053
▁ручк	-9.28066
овый	-9.28071
▁меньше	-9.28362
▁приобретает	-9.28394
▁бог	-9.28429
▁двери	-9.28646
▁ремонт	-9.28706
▁понрави	-9.28732
ях	-9.28793
▁более	-9.28851
▁девушк	-9.28855
▁ха	-9.28932
▁удар	-9.28934
овой	-9.28983
▁закрыл	-9.29042
▁наташа	-9.29047
▁обсуждает	-9.29063
▁пояс	-9.29117
a	-9.29222
▁предоставляет	-9.29552
▁играешь	-9.29789
ками	-9.29809
▁встал	-9.29847
▁птицы	-9.30444
▁стоимость	-9.30501
▁ф	-9.30721
e	-9.30762
▁название	-9.30772
▁тем	-9.30838
▁женщины	-9.30918
ста	-9.30964
▁вижу	-9.30981
▁понял	-9.31123
▁хорош	-9.31193
ание	-9.31349
▁нужны	-9.31381
▁старик	-9.31543
▁небо	-9.31554
▁стоят	-9.31574
▁отправил	-9.31691
▁предотвраща	-9.31691
оз	-9.31852
▁центр	-9.31905
▁война	-9.31906
▁закончил	-9.31934
▁начальник	-9.31942
▁покосил	-9.3224
▁сервер	-9.3229
▁славит	-9.32305
▁съел	-9.32318
ск	-9.32369
▁доставк	-9.32378
▁почувствовал	-9.32482
▁пока	-9.32522
▁берег	-9.32583
▁напал	-9.32795
▁цена	-9.32825
▁зубы	-9.32831
▁состоит	-9.32913
▁сон	-9.32949
▁станет	-9.33014
бер	-9.33017
▁спит	-9.33034
▁около	-9.33154
▁верю	-9.33221
▁ре	-9.33271
пл	-9.33324
▁ката	-9.33432
▁представитель	-9.33437
бо	-9.33641
▁комплект	-9.33693
▁грудь	-9.33694
▁правильно	-9.33816
▁мной	-9.34026
▁качество	-9.34099
▁пар	-9.34137
▁труд	-9.34214
▁шаг	-9.34216
▁шум	-9.34225
ци	-9.34331
▁держал	-9.34412
▁приглашает	-9.34636
▁говорит	-9.34748
изма	-9.34786
▁пара	-9.34927
▁сосед	-9.3509
овые	-9.35148
▁проблем	-9.35276
▁вернулся	-9.35344
▁ищу	-9.35403
▁шесть	-9.35523
▁твои	-9.35536
▁готовить	-9.35552
▁невольно	-9.35638
▁думаю	-9.35638
▁13	-9.35667
▁наклонил	-9.3568
▁нов	-9.35681
▁доктор	-9.35686
▁тяжело	-9.35849
▁узнал	-9.35889
▁заниматься	-9.35952
▁дмитрий	-9.35986
▁положение	-9.35992
▁звуки	-9.36092
▁бу	-9.3616
оп	-9.36251
▁приехал	-9.363
▁лун	-9.36372
▁котенок	-9.36409
▁ту	-9.36534
▁шло	-9.36605
▁многи	-9.36649
▁губы	-9.36704
овка	-9.36783
▁конструкци	-9.36896
▁нос	-9.37008
▁14	-9.37044
ант	-9.3708
▁приверженец	-9.37159
▁повс	-9.37369
▁минус	-9.37425
▁считается	-9.37517
▁оценил	-9.37716
▁друзья	-9.37792
▁читать	-9.37965
▁перемнож	-9.38181
▁прибавить	-9.38196
погода	-9.38321
ню	-9.3865
▁книга	-9.38762
▁воды	-9.38773
тон	-9.38852
▁последни	-9.38852
▁продаж	-9.38996
▁род	-9.39011
▁собираешь	-9.39198
▁собрал	-9.39238
▁голос	-9.39274
▁нес	-9.39284
▁также	-9.39369
▁лена	-9.39422
▁находил	-9.39606
▁защищает	-9.39845
▁илья	-9.39919
▁вечер	-9.39951
▁сопровождает	-9.40008
▁кошек	-9.40014
▁квартиру	-9.40018
▁ночь	-9.40053
▁отнят	-9.40145
купить	-9.40186
▁команда	-9.40225
▁николай	-9.40247
▁эти	-9.40354
▁мало	-9.4043
лан	-9.40636
▁столе	-9.40651
шу	-9.40705
▁дальше	-9.408
▁бывает	-9.40827
▁заметил	-9.40827
боку	-9.40895
▁читал	-9.40898
▁стояла	-9.41011
льно	-9.41042
▁деятельность	-9.41067
▁хочется	-9.41095
ус	-9.41175
▁идеально	-9.41319
▁против	-9.41332
▁окно	-9.41502
нию	-9.41589
йдешь	-9.41672
▁открывается	-9.41693
▁моего	-9.41705
▁собаку	-9.4171
▁дней	-9.41784
▁страх	-9.41803
бывают	-9.41804
▁вино	-9.41988
▁ребят	-9.42154
инг	-9.42243
▁птиц	-9.42284
▁воздух	-9.42326
стро	-9.4236
▁столиц	-9.42411
▁точно	-9.42487
▁помо	-9.42561
▁саша	-9.42716
▁туда	-9.42731
▁смотрела	-9.42898
▁кол	-9.42953
▁врач	-9.42984
▁сша	-9.43208
▁книги	-9.4325
▁17	-9.43265
▁ответил	-9.43319
▁вариант	-9.43485
▁сад	-9.43626
▁ком	-9.43734
▁ж	-9.43773
▁выбирает	-9.43777
▁оговарива	-9.43803
▁главны	-9.43897
▁конфет	-9.43974
▁:	-9.43985
▁развел	-9.43993
▁рот	-9.44002
ган	-9.44032
▁отца	-9.4411
▁трубку	-9.4422
▁менеджер	-9.44304
▁интересно	-9.44478
▁кровь	-9.44569
▁добрый	-9.4475
▁осуществляет	-9.44855
▁ново	-9.44913
▁начало	-9.44982
▁осторожно	-9.44999
▁солдат	-9.45065
▁сменя	-9.45101
▁сигнал	-9.4513
▁художник	-9.45131
вор	-9.45222
кор	-9.45386
▁обед	-9.45396
пол	-9.4572
▁россия	-9.45894
▁б	-9.45971
ирует	-9.45986
▁повернул	-9.45998
▁цвета	-9.4601
лон	-9.46174
▁зимой	-9.46181
ила	-9.46202
илось	-9.46206
▁документы	-9.46226
▁мужик	-9.46227
▁сок	-9.46336
▁месяц	-9.46409
▁утро	-9.46467
цев	-9.46473
▁жил	-9.46549
▁вер	-9.46635
▁остановил	-9.46644
▁марк	-9.46706
▁нож	-9.46775
▁осень	-9.46806
▁мост	-9.46871
▁толпа	-9.46979
▁петя	-9.46989
▁облега	-9.46999
▁семью	-9.47025
▁клиент	-9.47086
▁занятия	-9.47093
▁отдал	-9.47179
бр	-9.47285
▁составляет	-9.47322
фа	-9.47352
▁ловит	-9.4738
▁толик	-9.47423
ска	-9.47426
▁выгляди	-9.47437
▁делаю	-9.47582
▁едет	-9.47661
ление	-9.47753
▁действительно	-9.47886
▁новую	-9.47897
▁удовольствие	-9.47936
▁павел	-9.47939
овая	-9.47959
s	-9.48019
▁высоко	-9.48021
▁хвост	-9.48109
▁инструмент	-9.48186
▁света	-9.48237
▁кур	-9.48393
▁прошла	-9.48446
ца	-9.48491
▁корпус	-9.48507
▁себе	-9.48507
▁сер	-9.48687
▁ряд	-9.48732
▁гре	-9.48871
▁ест	-9.48872
▁хлеб	-9.49074
▁написал	-9.4929
▁бесплатно	-9.49339
▁прочитал	-9.49369
▁городе	-9.49377
ства	-9.49448
очка	-9.49465
▁проект	-9.49561
▁спас	-9.49567
▁остановился	-9.49682
▁песни	-9.49731
▁интересуюс	-9.50113
▁снял	-9.50225
▁блок	-9.50416
▁являют	-9.5043
▁владимир	-9.50523
▁интерес	-9.50672
▁инженер	-9.5073
▁любовь	-9.50823
▁пробовал	-9.50832
▁дам	-9.50848
:	-9.50871
▁дерево	-9.50875
▁значение	-9.50886
▁право	-9.51043
—	-9.51115
▁земле	-9.5112
▁лошадь	-9.51144
лив	-9.51232
пу	-9.51246
▁пиво	-9.51411
▁слав	-9.51428
▁происходи	-9.51477
воз	-9.51487
▁путин	-9.51506
▁совет	-9.51688
▁денег	-9.51705
▁тест	-9.5176
▁момент	-9.51786
▁гарантирует	-9.52
гн	-9.52077
▁бур	-9.52155
▁га	-9.52187
▁немедленно	-9.52297
бу	-9.5234
▁зарядку	-9.52408
бор	-9.52414
▁помещение	-9.52561
▁головы	-9.52589
▁аккумулятор	-9.52595
▁тогда	-9.52595
▁строит	-9.52604
▁холод	-9.52656
▁закон	-9.52708
рин	-9.52805
▁останавливает	-9.52957
▁согласил	-9.52988
▁пишет	-9.53024
время	-9.53066
▁идут	-9.5307
ица	-9.53105
▁недоверчиво	-9.53193
▁раскрыл	-9.53376
▁трех	-9.53458
коп	-9.53566
его	-9.53596
▁коляск	-9.53724
▁хозяйк	-9.53794
▁ездит	-9.53846
▁результате	-9.53878
▁занял	-9.53995
▁поезд	-9.5405
ерез	-9.54199
род	-9.54251
▁егор	-9.54283
▁бо	-9.54286
▁очаровательны	-9.54327
▁схватил	-9.54383
олог	-9.54389
▁родители	-9.54399
▁активно	-9.54494
вы	-9.54674
▁моментальн	-9.54736
▁группы	-9.54739
▁потерял	-9.54752
▁начала	-9.54758
▁дочь	-9.54794
▁маленький	-9.54827
лей	-9.54883
ес	-9.54984
▁пристально	-9.55008
▁артур	-9.55011
▁круто	-9.5513
▁сменил	-9.55163
▁спрятал	-9.55314
▁москв	-9.55363
▁колеса	-9.55528
▁вперед	-9.55628
▁разглядывает	-9.55637
▁скоро	-9.55772
▁убил	-9.55777
▁голова	-9.55793
ило	-9.55953
▁ворон	-9.56053
▁забрал	-9.5606
▁расскажи	-9.56237
▁охраняет	-9.56291
▁гриш	-9.56398
ью	-9.56404
▁умеет	-9.56431
▁смотрю	-9.56547
▁случилось	-9.5658
▁кап	-9.56706
▁конфеты	-9.56787
данный	-9.56824
▁надежно	-9.5684
▁наталья	-9.56857
▁обеспечивают	-9.56857
▁комплекс	-9.56858
ились	-9.56875
▁города	-9.56896
▁будут	-9.56988
енный	-9.57041
▁работе	-9.57131
ости	-9.57251
▁прямо	-9.57277
▁ге	-9.57409
▁выбор	-9.57421
▁таким	-9.57558
▁вкус	-9.57562
▁понравился	-9.57576
▁президент	-9.57767
лер	-9.5777
▁восемь	-9.57795
ева	-9.5782
▁зас	-9.57965
▁рыба	-9.58103
▁внимание	-9.58263
▁комнате	-9.58273
▁домашни	-9.58391
▁девочку	-9.58426
▁звали	-9.58426
▁квартира	-9.58449
▁ему	-9.58455
▁ольга	-9.58497
▁з	-9.58508
▁недавно	-9.58556
▁проводит	-9.58708
▁отвечать	-9.58775
▁читаю	-9.5879
▁большая	-9.58828
▁состоял	-9.58873
▁сыр	-9.58924
▁ящик	-9.58959
▁землю	-9.59059
очек	-9.59149
▁убивает	-9.59189
раз	-9.59204
▁скорость	-9.59231
▁прием	-9.59397
▁взяла	-9.59471
▁молодая	-9.59507
▁представляет	-9.59523
▁говорил	-9.59554
▁сердито	-9.59581
▁всю	-9.59645
▁причина	-9.5981
▁федор	-9.5988
▁сдает	-9.60005
▁неподалеку	-9.60017
остью	-9.60023
гра	-9.60067
▁шли	-9.60087
лик	-9.60132
▁бор	-9.60138
вдали	-9.60186
▁принадлежи	-9.60188
▁занимает	-9.60219
▁16	-9.60231
▁остал	-9.60244
▁дуб	-9.60279
▁друзей	-9.60339
▁снимет	-9.6035
▁недо	-9.60403
▁семья	-9.60469
▁мечтаю	-9.60548
▁раздал	-9.60607
▁ск	-9.608
▁требует	-9.60804
▁пару	-9.60838
▁ходит	-9.6086
▁текст	-9.60954
▁комфорт	-9.60986
се	-9.60996
▁окна	-9.61026
▁смотреть	-9.61141
▁ключ	-9.61296
▁заявление	-9.61311
▁артем	-9.61322
▁ага	-9.61407
▁выбрал	-9.61432
▁прода	-9.61494
▁анна	-9.61614
чалось	-9.61736
▁паспорт	-9.61774
▁кошечка	-9.61896
▁упал	-9.61976
▁проживаю	-9.61988
▁искал	-9.62035
▁макс	-9.62052
▁те	-9.62185
▁мышей	-9.62311
▁насколько	-9.62366
▁решил	-9.62414
куп	-9.62432
▁встреча	-9.62524
▁стихи	-9.62527
▁товар	-9.62567
▁возвращается	-9.62628
▁стали	-9.62681
▁оплачивают	-9.62712
▁которы	-9.62726
▁содержит	-9.62776
▁разговор	-9.62851
▁требуется	-9.63133
ван	-9.63186
▁ушел	-9.6328
▁степан	-9.63281
ске	-9.6332
▁ужас	-9.63378
▁автомат	-9.63433
▁сделан	-9.63508
▁верх	-9.63534
рд	-9.63537
▁начали	-9.63657
рон	-9.63667
▁сентябр	-9.63722
▁бал	-9.63773
▁поглядывал	-9.63945
▁приятно	-9.63949
▁кожу	-9.63964
▁информация	-9.64038
▁историю	-9.64075
▁живот	-9.64193
пор	-9.64204
▁вход	-9.64221
r	-9.64246
▁анастасия	-9.6428
▁действие	-9.64281
исты	-9.6431
▁самом	-9.64312
▁веришь	-9.64324
▁рок	-9.64376
кс	-9.64537
▁маленькие	-9.64545
▁служит	-9.64609
▁деревья	-9.64616
вил	-9.64633
▁мгновенно	-9.64664
▁катя	-9.64752
▁история	-9.6482
▁фи	-9.64923
;	-9.64952
▁иногда	-9.64952
▁поведение	-9.65032
▁пил	-9.6504
▁прибор	-9.65044
▁пас	-9.65052
▁вор	-9.65102
▁поверхность	-9.65317
▁гарри	-9.65324
▁снимает	-9.65347
▁завод	-9.65377
▁учится	-9.65423
▁праздник	-9.65478
даст	-9.65499
▁глав	-9.65551
▁ел	-9.65554
▁жив	-9.65633
овал	-9.65767
▁петр	-9.6578
▁ем	-9.65816
ому	-9.65822
▁лица	-9.65962
▁шкаф	-9.65976
▁актер	-9.65995
▁пришла	-9.65999
▁ножк	-9.6602
▁камера	-9.66089
▁ма	-9.66124
▁старый	-9.66171
▁думаешь	-9.66311
▁тянет	-9.66312
▁родился	-9.66387
▁пью	-9.66466
▁самое	-9.6655
сон	-9.6666
▁животные	-9.66713
▁мысли	-9.66942
2	-9.66964
▁губ	-9.67025
▁пыта	-9.67055
овать	-9.67067
▁номер	-9.67108
▁светлана	-9.67326
▁болел	-9.67341
▁обстановк	-9.67341
▁слушаю	-9.67342
▁путь	-9.67367
▁круг	-9.67477
▁правду	-9.67487
▁остров	-9.67532
▁часы	-9.67561
▁бизнес	-9.67687
▁следует	-9.67712
▁успех	-9.67748
▁продолжал	-9.67769
чу	-9.67811
▁диск	-9.6783
▁каков	-9.67849
атор	-9.67874
▁кирилл	-9.67949
▁смысл	-9.67983
▁кино	-9.67994
▁фото	-9.68056
▁сталин	-9.68124
▁сестру	-9.68124
▁дик	-9.68208
▁честно	-9.68323
▁защит	-9.68329
▁транспорт	-9.68356
чин	-9.68366
▁декабр	-9.68385
▁говорю	-9.68415
▁украсит	-9.6842
▁оборудование	-9.68429
▁начинаются	-9.68519
▁заботливы	-9.68539
▁свойств	-9.6855
няя	-9.68551
▁наполнил	-9.68552
▁разве	-9.68612
▁срок	-9.68618
▁пер	-9.68646
▁создал	-9.68703
▁охот	-9.68776
она	-9.68895
▁птица	-9.68953
▁держат	-9.68973
▁отпуск	-9.69007
▁мальчика	-9.69166
▁спросить	-9.69195
лит	-9.69242
▁виде	-9.69285
▁объект	-9.69431
▁рассмеялся	-9.69464
▁случайно	-9.69634
▁пить	-9.69702
бра	-9.69752
▁маршрут	-9.69787
▁расцветк	-9.6979
▁колбас	-9.6979
▁гол	-9.69793
▁разум	-9.69794
▁иде	-9.69798
▁деле	-9.69803
▁утра	-9.69923
▁вел	-9.70082
скую	-9.70097
ики	-9.70098
чка	-9.70161
▁окружил	-9.70175
▁друга	-9.7019
▁подтверждает	-9.70254
▁сохранил	-9.70278
▁занимают	-9.70279
ний	-9.7028
нс	-9.70385
▁витя	-9.70567
▁ситуация	-9.70579
▁данные	-9.70597
▁питают	-9.7073
▁металл	-9.70737
▁бр	-9.70745
▁спал	-9.70761
▁умножени	-9.70857
▁капюшон	-9.70857
▁движение	-9.70871
▁огонь	-9.70887
▁член	-9.70895
▁десять	-9.70914
▁другие	-9.7093
▁крепко	-9.70968
▁поднимает	-9.71042
▁ле	-9.71053
ходом	-9.71082
▁напоминал	-9.71093
▁24	-9.71196
▁подниме	-9.71217
▁предложение	-9.71224
лад	-9.71292
▁договор	-9.71305
ском	-9.71398
▁взгляд	-9.71404
▁любы	-9.71449
▁силы	-9.71495
▁ходить	-9.7151
▁рыбу	-9.71515
▁водой	-9.71555
▁хобби	-9.71575
▁устроил	-9.71578
вин	-9.7158
▁предмет	-9.71585
▁сына	-9.71593
▁ша	-9.71605
нин	-9.71629
▁фе	-9.71643
▁вагон	-9.7165
▁любящи	-9.71701
▁математик	-9.71734
▁уходит	-9.7175
▁цветы	-9.71871
ировал	-9.71907
▁кара	-9.71929
▁принесл	-9.71929
▁23	-9.71953
вяз	-9.71987
▁роль	-9.72015
▁устанавливает	-9.72064
▁облегчает	-9.72108
▁мимо	-9.72131
лок	-9.72149
▁функци	-9.72297
▁нельзя	-9.72298
▁понимаешь	-9.72298
▁дли	-9.72357
нка	-9.72403
под	-9.72436
▁рыбы	-9.72509
▁пример	-9.72579
▁чувство	-9.72584
▁порождает	-9.72662
ё	-9.72662
▁район	-9.72686
▁молоко	-9.72829
▁им	-9.72965
▁прошел	-9.7304
▁22	-9.73078
▁речь	-9.73126
▁зим	-9.73228
▁воз	-9.73242
▁денис	-9.73273
▁писал	-9.73284
▁узнать	-9.73393
▁объявил	-9.73396
▁говоришь	-9.73402
▁испо	-9.73424
▁игорь	-9.73438
▁семен	-9.73466
▁21	-9.73498
▁работают	-9.73518
5	-9.73552
ень	-9.73563
▁пуст	-9.73654
▁молчание	-9.73655
▁реализует	-9.73761
▁исполнил	-9.73761
▁одну	-9.73761
▁занимался	-9.73829
▁водитель	-9.7388
▁готовил	-9.73889
▁машин	-9.74069
овых	-9.74071
▁сотрудник	-9.74075
▁расп	-9.7409
▁генерал	-9.7414
▁земля	-9.74191
▁возраст	-9.74202
▁петька	-9.7431
▁слышал	-9.74401
▁ежедневно	-9.745
▁корабль	-9.745
▁небольшая	-9.745
▁слушает	-9.745
▁мотор	-9.74524
▁еда	-9.74548
▁жар	-9.74668
▁сахар	-9.74765
▁приходит	-9.74802
вший	-9.74821
▁подруг	-9.7485
чит	-9.74975
▁всяки	-9.75091
▁орган	-9.75114
▁берет	-9.75123
▁ответить	-9.7532
▁начинал	-9.7539
▁улучшает	-9.75423
ишься	-9.75443
▁хороши	-9.75466
иль	-9.75501
▁офицер	-9.75546
▁костя	-9.7564
▁возможность	-9.75706
▁эй	-9.75748
▁читает	-9.75748
▁парк	-9.75844
▁высот	-9.75853
▁ужин	-9.75887
ники	-9.75961
▁котор	-9.75982
▁девушку	-9.75984
▁снизу	-9.75996
▁поражает	-9.75996
▁лоб	-9.76297
ское	-9.76354
▁жаль	-9.76377
мат	-9.764
▁относишь	-9.76406
▁витьк	-9.76526
▁нормально	-9.76526
▁человеком	-9.76576
▁петь	-9.76598
▁прекратил	-9.76618
▁множество	-9.76664
ских	-9.76683
илась	-9.76686
ности	-9.767
▁мороз	-9.76743
▁девять	-9.76752
енная	-9.76829
▁дороги	-9.77017
▁получилось	-9.77088
▁пал	-9.77113
▁слишком	-9.77132
▁энн	-9.77136
▁этаже	-9.77153
▁сложения	-9.77236
▁издал	-9.77434
▁учитель	-9.77493
▁правительство	-9.77526
▁пространство	-9.77536
▁сторона	-9.7756
▁выход	-9.77619
▁сто	-9.77655
▁аппарат	-9.77756
▁неожиданно	-9.77833
вид	-9.77839
▁силуэт	-9.77897
▁растения	-9.77897
▁подарок	-9.77898
▁аня	-9.77968
▁рождает	-9.78014
▁щен	-9.78143
▁феврал	-9.78233
▁подчеркн	-9.78281
▁январ	-9.78286
ехать	-9.78333
▁страна	-9.7835
дин	-9.78423
▁фотографи	-9.78435
▁увеличивает	-9.78497
▁понимаю	-9.785
▁тысяч	-9.78526
друг	-9.78567
▁идти	-9.78669
▁пожар	-9.78673
▁одежда	-9.78984
▁недели	-9.79061
▁марта	-9.79069
еле	-9.79088
дель	-9.79093
▁одева	-9.79147
▁вис	-9.79158
▁газ	-9.79209
▁дима	-9.7934
▁москве	-9.79348
▁анти	-9.79403
▁управляет	-9.79445
▁матрос	-9.79447
▁руб	-9.79541
▁лар	-9.79587
шен	-9.79595
▁коля	-9.79604
▁программ	-9.79639
▁лениво	-9.79645
▁стакан	-9.79658
▁носил	-9.79665
▁документ	-9.79739
▁дел	-9.79796
▁нагрузк	-9.79854
стра	-9.79879
▁вернешь	-9.79931
▁поймал	-9.79976
▁опускает	-9.80227
▁офис	-9.80232
▁мая	-9.80251
▁склад	-9.80289
нт	-9.80443
▁детски	-9.80463
▁ресторан	-9.8056
▁экран	-9.80617
▁поиск	-9.8062
▁рождения	-9.80621
▁счет	-9.80655
▁пропуска	-9.8066
▁вам	-9.80843
▁30	-9.81019
▁метод	-9.81064
▁маленькая	-9.81143
ющийся	-9.81183
▁отсутствие	-9.81319
▁щенк	-9.81352
▁ед	-9.81522
▁этаж	-9.8155
▁обсужда	-9.81778
▁семейств	-9.81811
▁покрывает	-9.81816
▁берешь	-9.81833
▁очередь	-9.81886
▁недолго	-9.81914
▁скрывает	-9.81955
▁ярки	-9.82048
▁кар	-9.82055
ряд	-9.82102
▁обязательно	-9.82109
▁горло	-9.82209
▁назови	-9.82212
▁титул	-9.82215
▁алена	-9.82246
▁милые	-9.82265
▁турист	-9.82342
▁дни	-9.82562
▁обсуждают	-9.82587
▁насмешливо	-9.82613
▁сп	-9.82643
▁золото	-9.82714
▁благодар	-9.82726
торой	-9.82773
▁заказ	-9.82781
▁несет	-9.82785
мор	-9.82876
▁услышал	-9.82876
енно	-9.82932
▁теряет	-9.83044
▁тормоз	-9.83054
▁животное	-9.83057
ден	-9.8317
ция	-9.8325
▁завтрак	-9.83347
щий	-9.83358
ище	-9.83408
▁земли	-9.83423
▁мысль	-9.83429
▁расход	-9.83609
▁нужда	-9.83612
o	-9.83621
▁нового	-9.83692
▁экзамен	-9.83704
▁возникающи	-9.83749
▁прос	-9.83787
▁ноутбук	-9.83827
▁неужел	-9.83828
▁нашла	-9.83859
▁пр	-9.83865
▁пиццу	-9.83922
▁генк	-9.83943
▁отель	-9.83968
ющая	-9.83974
▁совершил	-9.83981
чат	-9.8414
▁масло	-9.84173
▁му	-9.84186
▁подойд	-9.84203
ющее	-9.84203
▁роботов	-9.84204
▁список	-9.84235
▁стране	-9.8427
гор	-9.84271
▁изменил	-9.84448
ировать	-9.84513
▁располагает	-9.84532
▁оценк	-9.84542
▁баз	-9.84588
▁крик	-9.84592
▁джулиан	-9.84655
▁учительниц	-9.84675
▁возле	-9.84679
▁элис	-9.84698
▁взрыв	-9.84789
ге	-9.84811
▁банк	-9.84868
1	-9.84878
▁ник	-9.84884
▁мор	-9.84885
▁питер	-9.85081
жу	-9.85118
▁блюда	-9.85238
▁смерт	-9.85251
▁учиться	-9.85298
▁александра	-9.85348
▁захватил	-9.85362
▁покрыл	-9.85374
▁закончит	-9.85384
▁механизм	-9.8547
▁пищу	-9.85474
▁творчество	-9.85573
▁рассматривает	-9.85647
▁приближа	-9.85687
▁чу	-9.85711
▁кабинет	-9.85853
▁пойду	-9.85897
▁д	-9.85897
▁джек	-9.85927
▁вера	-9.8594
▁прививк	-9.86016
▁захар	-9.86022
▁черный	-9.86053
долго	-9.86151
▁темнот	-9.86199
▁мал	-9.86201
▁ар	-9.86216
▁объем	-9.86302
▁продавец	-9.86302
▁брата	-9.86327
▁открыла	-9.86424
▁большинство	-9.86632
ничество	-9.86661
▁тишин	-9.86674
»	-9.8672
ников	-9.86757
▁костюм	-9.86771
▁лодк	-9.86785
▁программа	-9.86866
▁товарищ	-9.86873
▁лист	-9.86902
▁ворота	-9.86908
▁задачи	-9.87005
▁уверена	-9.87163
▁сказала	-9.87246
▁добро	-9.87256
ена	-9.87361
или	-9.87402
▁печ	-9.87509
▁дама	-9.87529
▁женщин	-9.87543
▁обезьян	-9.87562
▁следующи	-9.8757
▁старуха	-9.87583
▁скажу	-9.87661
▁персонал	-9.87773
▁период	-9.87787
▁оружие	-9.87835
ски	-9.87854
▁смерти	-9.87858
▁значит	-9.87912
▁возника	-9.87973
▁константин	-9.87982
▁бутерброд	-9.87986
▁телевизор	-9.87986
▁просматривает	-9.87996
▁елена	-9.88004
▁впереди	-9.88096
лка	-9.88144
▁порт	-9.88235
▁оля	-9.88307
▁залил	-9.88321
▁того	-9.88365
▁проходил	-9.88375
▁изумленно	-9.88411
▁обернулся	-9.88433
▁боится	-9.8844
▁пяти	-9.88445
▁получит	-9.88462
раж	-9.88492
▁матери	-9.88549
▁мотоцикл	-9.88575
▁гриб	-9.88673
рик	-9.88731
▁радио	-9.88766
иков	-9.8878
▁сестра	-9.88793
▁интеллект	-9.88838
▁вышла	-9.88839
▁немцы	-9.88856
▁голуб	-9.88891
▁побед	-9.88966
▁состав	-9.88981
▁голоса	-9.89007
▁тур	-9.89092
новь	-9.89113
▁любим	-9.89135
▁мультфильм	-9.89185
▁пират	-9.89218
▁пришло	-9.89233
ян	-9.89261
▁вячеслав	-9.89264
▁растение	-9.89269
▁плотно	-9.89325
▁мар	-9.89334
▁лед	-9.89384
▁рука	-9.89469
▁днем	-9.89482
▁строительство	-9.89515
тягивает	-9.89633
▁найдет	-9.89706
▁этим	-9.89761
емость	-9.89785
▁вася	-9.89867
▁сбор	-9.89901
▁игру	-9.89908
▁радость	-9.89911
▁см	-9.89925
▁справа	-9.89937
енок	-9.90069
▁пахне	-9.90081
▁устройство	-9.90093
▁застраива	-9.901
▁символ	-9.90132
▁поэтому	-9.90155
▁пошла	-9.90162
моему	-9.90168
▁дополнительны	-9.90177
▁иду	-9.90234
▁особенно	-9.9033
▁иско	-9.90354
нием	-9.90407
▁отличают	-9.90426
▁получи	-9.90489
▁воин	-9.90522
▁школьн	-9.90552
▁августа	-9.90556
▁слушать	-9.90567
▁университет	-9.90567
▁усиливает	-9.90571
▁салон	-9.90574
▁тишина	-9.90621
ции	-9.90622
▁отдела	-9.90756
▁детк	-9.90798
▁редко	-9.90891
▁проверяет	-9.9095
▁воззрил	-9.91003
▁озадаченн	-9.91004
▁равна	-9.91006
▁ловил	-9.91014
▁слезы	-9.91049
▁маг	-9.91145
нер	-9.91212
нии	-9.91228
▁смерть	-9.91259
▁сторону	-9.91446
▁привлекает	-9.91454
▁ненавидишь	-9.91464
▁остальные	-9.91469
резина	-9.91483
▁привел	-9.91523
▁чувствовал	-9.91544
▁вз	-9.91563
чки	-9.91576
▁блюдо	-9.91626
ирование	-9.91637
▁ошибк	-9.91671
▁собирал	-9.91801
▁мельком	-9.9182
вает	-9.9184
▁возвращаешь	-9.91852
▁кормит	-9.91869
▁комисси	-9.91882
▁двигает	-9.91942
▁володя	-9.91964
d	-9.9198
вой	-9.92
▁бег	-9.92048
▁добр	-9.92064
▁корм	-9.92088
▁зуб	-9.92101
кар	-9.92144
▁летом	-9.92176
▁конце	-9.92235
▁шар	-9.92265
казать	-9.92287
▁кушаю	-9.92291
▁собой	-9.92373
▁замечательно	-9.92386
▁работник	-9.92398
▁ис	-9.92407
▁создают	-9.92544
лишь	-9.92569
▁руками	-9.92588
пад	-9.92608
▁условия	-9.92738
▁отчаянно	-9.92769
▁спортсмен	-9.92769
▁поехал	-9.9277
▁уехал	-9.9277
▁двигатель	-9.92783
▁спин	-9.92798
▁интересуешь	-9.928
▁волк	-9.92817
▁данн	-9.92852
▁русский	-9.92915
фер	-9.92927
▁появля	-9.92937
▁отпустил	-9.92943
▁пост	-9.93089
три	-9.93167
нет	-9.93193
▁слух	-9.93237
▁кал	-9.9336
▁вычитания	-9.93381
▁перемен	-9.93383
▁носит	-9.93415
▁мастера	-9.93424
шин	-9.93492
енное	-9.93523
▁будуще	-9.93533
▁журнал	-9.93607
льник	-9.93624
льщик	-9.93631
▁занят	-9.93644
▁душ	-9.93665
▁помню	-9.93719
▁сил	-9.93799
▁оглядела	-9.93809
▁девчонк	-9.93818
▁музыкант	-9.93829
▁радует	-9.93834
3	-9.94017
▁пи	-9.94076
▁уменьшает	-9.94113
▁адрес	-9.94118
▁выпил	-9.94145
ук	-9.94221
дон	-9.94245
▁некоторы	-9.94289
▁бой	-9.94348
ины	-9.94415
▁перв	-9.94428
▁обновляет	-9.9447
▁поп	-9.94475
▁двадцат	-9.94531
▁разбудил	-9.94555
▁всем	-9.94583
▁белы	-9.94593
именно	-9.94604
▁рыбак	-9.9462
▁тре	-9.94626
▁аркадий	-9.94644
▁вспомнил	-9.94653
▁места	-9.94659
▁свобод	-9.94677
уха	-9.94869
▁готовит	-9.94932
▁приобрел	-9.94933
▁программист	-9.9497
▁форм	-9.94984
▁отдыха	-9.95006
▁зоя	-9.9501
▁падает	-9.95012
▁хороший	-9.95022
▁прервал	-9.95023
▁элемент	-9.95047
▁двор	-9.95052
▁космос	-9.95084
▁меняет	-9.9512
▁зл	-9.95126
▁здоровье	-9.95142
ывает	-9.9522
▁мин	-9.95373
нут	-9.95375
▁школа	-9.95481
▁вытащил	-9.95509
▁страниц	-9.95517
▁леса	-9.95552
кон	-9.95558
▁британ	-9.95564
▁доме	-9.95567
рис	-9.95569
▁столом	-9.95693
▁отда	-9.95739
▁электро	-9.95763
енко	-9.95787
ину	-9.95836
уд	-9.95919
▁выключил	-9.95978
▁никак	-9.96089
▁опустила	-9.96092
войну	-9.96158
▁пят	-9.96225
▁чуть	-9.96244
полн	-9.96245
▁ус	-9.96291
▁ситуаци	-9.96295
▁молния	-9.96305
▁помощник	-9.96398
нес	-9.9646
▁крупны	-9.96479
▁станци	-9.96488
▁ходил	-9.96525
▁шляп	-9.96567
▁сан	-9.96628
шки	-9.96776
▁приподнял	-9.96861
▁большое	-9.96891
пал	-9.96917
▁организация	-9.97021
▁российски	-9.97041
▁поля	-9.97043
хотя	-9.97056
▁луна	-9.97079
чно	-9.97309
▁лесу	-9.97326
▁обнаружил	-9.9733
▁крым	-9.97331
▁велосипед	-9.97369
▁удаляет	-9.97388
▁бежит	-9.97429
▁огромны	-9.97445
▁группу	-9.97501
▁чист	-9.97533
▁красивы	-9.97627
▁оборот	-9.97664
▁толп	-9.97703
▁большую	-9.97721
▁клуб	-9.97725
▁существует	-9.97793
▁пальцы	-9.97793
▁американц	-9.97836
▁выглядел	-9.97841
ура	-9.9785
▁враг	-9.97876
▁мише	-9.97877
▁ног	-9.98036
▁валентина	-9.98069
▁никита	-9.98116
▁проблема	-9.98125
длобь	-9.98263
▁вернусь	-9.98264
▁увлекаешься	-9.98264
▁борщ	-9.98288
▁кук	-9.98301
▁дополнительн	-9.98317
▁знак	-9.98342
▁положил	-9.98388
▁летать	-9.98496
ует	-9.98556
▁удач	-9.98566
▁отличны	-9.98578
▁солдаты	-9.98612
▁рад	-9.98663
▁мужа	-9.987
▁чехол	-9.98735
▁власть	-9.98753
гер	-9.9876
▁черн	-9.98778
звонок	-9.98787
ологии	-9.98807
▁спросил	-9.98824
рат	-9.98948
▁будь	-9.99012
▁официант	-9.99041
▁сорт	-9.99148
▁жанна	-9.99213
▁недоуменно	-9.9925
оль	-9.99271
енность	-9.99273
▁25	-9.99346
▁зажег	-9.99349
ируется	-9.99459
▁парни	-9.99483
▁знаком	-9.99506
▁расту	-9.99656
▁мяса	-9.99685
▁воде	-9.99687
▁изображение	-9.99691
рад	-9.997
▁наруж	-9.997
▁дерева	-9.99705
▁душа	-9.99752
▁успешно	-9.99799
▁луч	-9.99854
вес	-9.99903
▁подал	-9.99956
▁месте	-9.99959
▁сумма	-9.99987
▁одного	-10
▁зап	-10.0003
▁интернет	-10.0014
▁просит	-10.0014
▁талию	-10.0016
▁пьет	-10.0017
▁чувствую	-10.0022
рия	-10.0026
▁кошечк	-10.0027
▁философ	-10.0034
▁резин	-10.0038
▁гон	-10.0045
▁быстрее	-10.0053
▁оп	-10.0062
▁медведь	-10.0064
▁связь	-10.0065
кушать	-10.0067
вернулась	-10.0071
▁карты	-10.0073
▁спинка	-10.0082
▁набор	-10.0085
▁общаться	-10.0086
▁тон	-10.0096
гон	-10.0096
▁черно	-10.0099
нь	-10.0101
▁ро	-10.0102
▁командир	-10.0103
рус	-10.0104
▁рабочи	-10.0104
▁наступил	-10.0108
▁планет	-10.0111
▁доставил	-10.0113
▁океан	-10.0113
▁вскочил	-10.0124
▁площадь	-10.0133
▁глазами	-10.0133
▁дороге	-10.0143
▁заб	-10.0144
аты	-10.0146
▁лифт	-10.0147
▁книг	-10.0149
▁считают	-10.0151
▁хранил	-10.0153
▁бежал	-10.0154
▁коронавирус	-10.0161
▁успокаивает	-10.0161
▁установк	-10.0161
▁правила	-10.0166
▁бед	-10.0167
▁нападает	-10.0168
дум	-10.0177
чил	-10.018
▁хотела	-10.018
▁ударил	-10.0185
▁хотелось	-10.0189
▁русск	-10.0196
▁сцен	-10.0207
▁кажется	-10.021
▁озеро	-10.021
▁добры	-10.0211
▁мак	-10.0212
▁поставщик	-10.0212
▁сайт	-10.0221
▁возьмешь	-10.0226
ушка	-10.023
▁напали	-10.023
▁брак	-10.0231
бой	-10.0233
▁форма	-10.024
пс	-10.0244
▁работал	-10.0246
▁бывал	-10.025
▁мягко	-10.0252
▁гуд	-10.0253
▁среди	-10.0256
▁руке	-10.0256
▁свободное	-10.0262
▁крест	-10.0267
▁государство	-10.0294
▁песн	-10.0296
ала	-10.0304
▁бе	-10.0307
нее	-10.0308
▁поспешно	-10.0308
▁прислал	-10.0308
▁би	-10.0322
▁армия	-10.0327
▁улиц	-10.0334
▁лошади	-10.0335
▁ваши	-10.0337
▁находят	-10.0345
▁жертв	-10.0354
▁джордж	-10.0358
▁неплохо	-10.0359
▁готовлю	-10.0361
▁игр	-10.0361
▁лиза	-10.0363
▁мужчины	-10.0364
нг	-10.0367
▁япони	-10.0368
▁сама	-10.0368
▁полет	-10.0373
▁чудес	-10.0373
▁надевает	-10.0377
▁сумм	-10.0379
▁шест	-10.0386
▁забил	-10.0387
реж	-10.0391
▁код	-10.0391
▁боря	-10.0393
m	-10.0394
▁полян	-10.0401
▁туалет	-10.0408
▁пен	-10.0409
вшись	-10.0413
▁втор	-10.0418
▁чудо	-10.0419
▁помогает	-10.0431
ческо	-10.0432
▁бил	-10.0434
кус	-10.0436
ья	-10.0438
▁риск	-10.0441
▁готов	-10.0446
▁маша	-10.0448
▁друж	-10.0457
▁изделия	-10.0458
▁участник	-10.0458
▁источник	-10.0458
▁приспособление	-10.0458
▁кольнул	-10.0458
▁ру	-10.0461
мот	-10.0465
▁столик	-10.0469
▁спорта	-10.0472
ыч	-10.049
▁нерешительно	-10.0495
▁рыб	-10.0497
▁подготовк	-10.0508
▁сезон	-10.0508
▁своем	-10.0511
i	-10.0512
▁начнет	-10.0513
▁запас	-10.0518
▁спорт	-10.0523
▁опас	-10.053
▁ваня	-10.0531
▁устраивает	-10.0536
▁колесо	-10.0537
▁ше	-10.0538
▁выстрел	-10.055
▁беру	-10.0554
▁монтаж	-10.0558
ления	-10.056
▁рук	-10.0564
▁грузовик	-10.0565
ному	-10.0567
гар	-10.0574
▁любую	-10.0577
▁высок	-10.0579
еля	-10.0583
▁рам	-10.0594
▁спрос	-10.0598
▁хор	-10.0603
▁крыс	-10.0603
▁машине	-10.0605
▁наконец	-10.0609
▁оказалось	-10.0611
▁кашу	-10.0612
4	-10.0613
▁зав	-10.0622
дар	-10.0622
▁части	-10.0625
▁зелен	-10.063
▁поле	-10.0636
▁конверт	-10.0644
▁силу	-10.0658
легка	-10.066
▁экскурси	-10.066
g	-10.066
▁республик	-10.066
▁учителя	-10.066
вел	-10.0664
йте	-10.0664
▁душу	-10.0665
▁решает	-10.0665
▁продолжает	-10.0674
▁дворник	-10.0677
▁красны	-10.0678
зо	-10.0683
▁второ	-10.0694
▁рассмея	-10.0701
вр	-10.0703
▁ди	-10.0708
▁приказ	-10.0711
▁милиционер	-10.0711
▁подъем	-10.0711
▁достает	-10.0714
▁изменения	-10.072
▁висел	-10.0724
▁тела	-10.073
рос	-10.0738
▁ужасно	-10.0748
▁надежда	-10.075
даешь	-10.0762
▁депутат	-10.0763
▁назвал	-10.0764
▁пойдет	-10.0764
ас	-10.0774
▁ран	-10.0781
▁маму	-10.0788
▁предпочита	-10.079
▁настоящий	-10.0804
вая	-10.0806
▁чемпион	-10.0808
одной	-10.0814
▁жду	-10.0814
▁людьми	-10.0815
овым	-10.0817
▁проверить	-10.082
▁велосипеде	-10.0821
▁мусор	-10.0828
▁способность	-10.0832
▁крышка	-10.0832
▁торг	-10.0836
▁юля	-10.0837
▁рассказывает	-10.0841
▁причиной	-10.0842
вание	-10.0846
▁алеша	-10.0853
▁пахл	-10.0854
▁имел	-10.0854
▁небольши	-10.0859
▁минута	-10.086
▁поздно	-10.0868
▁кат	-10.0871
▁каза	-10.0877
▁отчет	-10.0882
▁кенд	-10.0883
▁дала	-10.0884
▁холм	-10.0886
▁ходят	-10.0889
▁отражает	-10.089
▁увидела	-10.0895
овщик	-10.0898
▁спортом	-10.0908
▁ощущение	-10.0908
▁называют	-10.0909
▁кухню	-10.0919
▁послышал	-10.0919
▁заполняет	-10.0925
▁малыша	-10.0929
пар	-10.0934
▁охватывает	-10.0938
▁мартин	-10.0941
▁выс	-10.0942
▁красный	-10.0946
▁кровати	-10.0946
▁динка	-10.0949
таки	-10.0952
хан	-10.0962
▁отлича	-10.0962
▁длил	-10.0964
▁китайц	-10.0965
▁повышает	-10.0969
▁вертолет	-10.0972
▁овладел	-10.0972
▁школы	-10.0972
▁мебель	-10.0972
▁полковник	-10.0972
▁брови	-10.0973
▁котором	-10.0984
ест	-10.0987
▁диван	-10.0987
▁кир	-10.0997
▁очки	-10.0999
▁подобны	-10.1017
▁па	-10.102
▁отряд	-10.1022
▁украд	-10.1025
ляет	-10.1026
▁сижу	-10.1026
▁пляж	-10.1027
▁смогу	-10.1028
▁забыл	-10.1028
гла	-10.103
▁улице	-10.103
ским	-10.103
▁замечательны	-10.1039
▁влаг	-10.104
▁плод	-10.1044
чер	-10.1053
▁проводил	-10.1057
▁мультики	-10.1065
▁возьм	-10.1068
▁коз	-10.1068
▁стас	-10.1072
ред	-10.1076
▁исчез	-10.1077
▁болезнь	-10.1078
▁обсуди	-10.1078
▁задрал	-10.1078
▁моим	-10.1078
▁спор	-10.108
l	-10.1085
▁регистраци	-10.1091
стан	-10.1094
▁продаю	-10.1096
▁мех	-10.1097
▁выращива	-10.1111
белый	-10.1118
▁видела	-10.1119
▁ци	-10.1122
вать	-10.1122
▁джон	-10.1123
▁тр	-10.1126
▁родил	-10.1127
▁учил	-10.1131
▁йогурт	-10.1131
▁понедельник	-10.1133
▁журк	-10.1136
вести	-10.114
▁пакет	-10.1155
▁син	-10.1155
▁произошл	-10.1157
▁мнение	-10.116
▁предлагают	-10.1174
▁наталия	-10.1175
▁слон	-10.118
▁больно	-10.1181
▁благо	-10.1182
▁кроме	-10.1184
▁хранит	-10.1186
▁катерина	-10.1187
▁втором	-10.119
▁безопасность	-10.1194
▁запускает	-10.1195
▁вспоминает	-10.1195
▁яйца	-10.1201
▁заслуживает	-10.1202
▁картин	-10.1202
поднимает	-10.1203
▁рев	-10.1216
енных	-10.1229
▁съела	-10.1235
вен	-10.1238
наружи	-10.1239
▁экипаж	-10.1239
▁кресло	-10.1239
▁гостей	-10.1239
▁федя	-10.1239
▁зелены	-10.1239
▁людям	-10.1239
▁рынок	-10.1239
▁думал	-10.124
тан	-10.1243
шей	-10.1244
▁соответствую	-10.1244
▁шерсть	-10.1245
▁большим	-10.1248
▁руч	-10.1251
алина	-10.1258
стер	-10.126
▁мен	-10.1263
▁кафе	-10.1264
▁настя	-10.1266
кание	-10.1268
▁мил	-10.1268
бол	-10.1271
сел	-10.1272
▁утрам	-10.1282
▁дух	-10.1284
▁продают	-10.1287
даша	-10.1287
▁сжал	-10.1288
▁отц	-10.129
▁программы	-10.129
▁любимо	-10.129
▁изделие	-10.1294
▁произвел	-10.1294
▁добра	-10.1294
ация	-10.1296
▁сме	-10.131
▁страж	-10.1314
▁уме	-10.1314
▁бассейн	-10.1317
▁вызов	-10.1317
чество	-10.1322
▁сильный	-10.1326
▁задачу	-10.1328
▁ищ	-10.133
▁агент	-10.1333
▁ненавиди	-10.1345
▁утверждение	-10.1348
▁сначала	-10.1349
▁обратно	-10.1358
▁замок	-10.1359
▁производство	-10.136
ении	-10.1362
▁память	-10.1366
▁король	-10.1372
▁понравилось	-10.1372
чива	-10.1388
▁причин	-10.1388
▁японц	-10.1394
▁шофер	-10.1403
▁кухне	-10.1403
▁порядок	-10.1403
▁смартфон	-10.1403
▁проявил	-10.1403
▁камень	-10.1404
▁тигр	-10.1405
смотреть	-10.1405
▁обрел	-10.1407
▁первом	-10.1412
нуть	-10.1423
▁включить	-10.1426
встречу	-10.1431
▁принимают	-10.1434
нье	-10.1443
▁диване	-10.1444
▁русски	-10.1446
▁танки	-10.1446
▁аренд	-10.1448
▁курс	-10.1449
▁прикрывает	-10.1458
▁ирина	-10.1462
▁красот	-10.1462
▁парня	-10.1464
▁основ	-10.1471
▁половин	-10.1485
▁авиаци	-10.1485
▁черт	-10.1492
бит	-10.1496
▁раздел	-10.1498
серьез	-10.1507
овое	-10.1508
▁болта	-10.151
рес	-10.1513
▁церковь	-10.1514
▁выдерживает	-10.1514
▁кольцо	-10.1514
▁нина	-10.1516
▁напомина	-10.1516
▁зина	-10.1517
▁артист	-10.1518
чник	-10.1523
▁50	-10.1525
▁корол	-10.1525
▁хорошая	-10.1525
▁тепл	-10.1527
▁комнаты	-10.1529
дра	-10.1531
▁мелк	-10.1534
▁поворот	-10.1536
▁кос	-10.1544
▁реклам	-10.1557
▁дружу	-10.1561
▁качества	-10.1566
▁ведут	-10.1567
▁уменьши	-10.157
▁глеб	-10.157
▁тряс	-10.157
▁обладаю	-10.1574
▁основание	-10.1574
инка	-10.158
▁серьезно	-10.1582
▁миллион	-10.1596
▁теле	-10.1597
▁рано	-10.16
▁лучший	-10.1605
▁первая	-10.1607
▁пле	-10.1611
▁хо	-10.1613
идят	-10.1616
укоризненно	-10.1617
▁взрывает	-10.1619
▁высокий	-10.1621
вшие	-10.1622
▁пыль	-10.1625
▁письма	-10.1626
▁наполняет	-10.1626
топ	-10.163
▁бесшумно	-10.163
▁исключает	-10.1633
▁южн	-10.1634
▁куб	-10.1637
▁задач	-10.164
▁зо	-10.1642
▁например	-10.1643
ивает	-10.1649
▁горит	-10.165
ниска	-10.1652
зма	-10.1654
▁охотник	-10.1656
шир	-10.1667
кий	-10.1669
▁листья	-10.167
▁ду	-10.1676
▁бумаги	-10.1681
▁поклон	-10.1681
▁динозавр	-10.1682
▁посадк	-10.1683
▁судно	-10.1683
▁желание	-10.1687
▁др	-10.169
▁перво	-10.1691
▁василий	-10.1699
▁разглядывал	-10.17
▁кан	-10.17
доль	-10.1702
▁поток	-10.1703
▁здание	-10.1708
▁замен	-10.1712
▁наш	-10.1713
▁рез	-10.1714
ари	-10.1715
▁входит	-10.1733
▁пилот	-10.1739
▁выпустил	-10.1739
▁каркас	-10.1739
▁регина	-10.174
▁туман	-10.1742
▁перелива	-10.1743
▁монах	-10.1743
▁контроль	-10.1745
▁совершает	-10.1745
гулять	-10.1749
▁пушкин	-10.1752
▁современн	-10.1761
▁паспорта	-10.1772
зар	-10.1773
▁кончает	-10.1776
сср	-10.1777
▁салат	-10.1778
▁поговори	-10.1781
▁развива	-10.1786
шек	-10.1788
ены	-10.1789
▁невесту	-10.179
▁баскетбол	-10.1796
▁ружье	-10.1797
▁последнее	-10.1797
▁ваньк	-10.1797
▁виктория	-10.1799
уль	-10.18
▁замедлил	-10.1809
ался	-10.1809
▁север	-10.181
▁переход	-10.1811
▁игрок	-10.1812
▁звон	-10.1813
▁победил	-10.1817
дается	-10.1818
▁мальчики	-10.182
▁чатботы	-10.182
▁понес	-10.1821
▁железн	-10.1827
ограф	-10.1836
▁искусство	-10.184
▁товарища	-10.1842
рь	-10.1846
n	-10.1848
▁пуговиц	-10.1854
▁летают	-10.1857
▁отправляет	-10.1859
▁геннадий	-10.186
▁подчеркива	-10.1862
▁шаги	-10.1864
▁кровать	-10.1866
ира	-10.1869
▁увлекает	-10.1871
▁лодка	-10.1872
▁чей	-10.1877
▁формирует	-10.188
▁размеры	-10.1885
▁политик	-10.1893
▁гость	-10.1894
▁кле	-10.1909
▁кивнул	-10.1912
▁чувствуешь	-10.1912
▁разжал	-10.1912
бывать	-10.1915
▁мол	-10.1917
▁оно	-10.1918
▁останется	-10.1922
▁гном	-10.1922
▁выполнил	-10.1924
▁музык	-10.1925
ением	-10.1931
▁созда	-10.1932
▁превосходно	-10.1934
▁дев	-10.1937
▁образование	-10.1938
▁лежала	-10.1941
▁кристина	-10.1942
ически	-10.1945
щая	-10.1946
▁рассердился	-10.1949
▁канад	-10.1953
▁пользу	-10.1954
▁стих	-10.1956
▁мат	-10.1957
▁летчик	-10.1958
▁предприятие	-10.1963
▁жест	-10.1968
▁девочек	-10.1971
▁нью	-10.1972
▁рассказ	-10.1973
▁главн	-10.1976
▁эл	-10.1983
▁волос	-10.1985
▁другом	-10.1992
▁прекрасны	-10.1998
▁голод	-10.2001
▁составил	-10.2003
▁затягивает	-10.2006
▁породы	-10.201
▁учен	-10.2019
▁делала	-10.2021
сен	-10.2023
▁старши	-10.2027
▁цыган	-10.2029
▁петрович	-10.203
▁квартиры	-10.203
▁температура	-10.203
▁труп	-10.203
▁расположен	-10.2038
изация	-10.2043
▁первого	-10.2049
чики	-10.205
▁дедушк	-10.2052
▁истинно	-10.2059
▁получила	-10.2059
▁увеличил	-10.2061
▁журналист	-10.2062
пут	-10.2066
▁поед	-10.2067
▁игрушки	-10.2069
▁река	-10.2079
▁печь	-10.2081
▁лук	-10.2086
▁режиссер	-10.2087
▁станислав	-10.2087
▁область	-10.2087
▁руководитель	-10.2087
метр	-10.2088
▁воображение	-10.2088
▁июля	-10.2088
▁лагер	-10.2089
▁храм	-10.209
щу	-10.2092
тар	-10.2093
зы	-10.2097
▁лап	-10.2097
▁дики	-10.2098
▁цел	-10.2106
▁роз	-10.2108
рит	-10.2109
▁побежал	-10.2112
▁четырех	-10.2115
▁случай	-10.2117
▁страны	-10.2121
▁бре	-10.2121
▁широк	-10.2122
▁торт	-10.2123
пы	-10.2124
▁запис	-10.2127
▁мод	-10.2128
t	-10.2128
каз	-10.2136
▁процедур	-10.2146
▁россию	-10.2146
▁превратил	-10.2146
▁теннис	-10.2148
▁интересны	-10.215
▁бак	-10.2152
▁база	-10.2155
▁данных	-10.2155
▁интересует	-10.2158
сил	-10.2164
▁складывает	-10.2165
▁опытный	-10.2166
▁обеспечит	-10.2167
▁обо	-10.217
▁литератур	-10.2173
овец	-10.2173
▁зеленый	-10.2174
▁начнут	-10.2176
▁издает	-10.2176
ней	-10.2184
сов	-10.2191
▁сорок	-10.2193
▁чер	-10.2193
▁попал	-10.2194
▁деда	-10.2197
▁николаевич	-10.2206
▁яблоки	-10.2209
текает	-10.2212
▁отложил	-10.2215
▁красивые	-10.2216
▁ба	-10.2227
▁зам	-10.2227
аюсь	-10.2228
▁ребенк	-10.2231
▁донес	-10.2231
▁ответы	-10.2233
вшийся	-10.224
▁кас	-10.2243
▁дата	-10.2243
▁направление	-10.2244
▁карта	-10.225
▁выполнял	-10.2252
▁министр	-10.2253
▁четверт	-10.2262
▁раздает	-10.2265
▁использовал	-10.2266
▁октября	-10.2266
▁пристегива	-10.2266
▁сотрудничеств	-10.2266
ющие	-10.2269
7	-10.2269
▁занятие	-10.2271
▁крутит	-10.2271
▁июня	-10.2275
▁повел	-10.2276
▁информацию	-10.2276
▁усили	-10.2278
▁оказывает	-10.2282
▁дур	-10.2291
▁покинул	-10.2293
▁замер	-10.2299
▁необычн	-10.2302
▁любимы	-10.2302
▁охотн	-10.2304
▁похож	-10.2312
▁упаковка	-10.2317
▁отношения	-10.2317
▁канал	-10.2319
▁ваше	-10.2321
дов	-10.2323
▁воздуха	-10.2325
▁напиток	-10.2326
▁продукты	-10.2326
▁приготовить	-10.2328
▁задание	-10.2328
▁маленько	-10.2329
▁разбил	-10.2332
▁джаз	-10.2333
▁таксист	-10.2336
вроде	-10.2338
▁собственно	-10.2349
▁молот	-10.2351
чью	-10.2353
звать	-10.2353
▁проход	-10.2353
▁такси	-10.2355
▁углу	-10.2355
▁пчел	-10.2356
▁истории	-10.237
▁возникл	-10.2372
ата	-10.2379
▁штат	-10.2386
▁асфальт	-10.2387
▁приносил	-10.2387
▁скривил	-10.2387
▁молодеж	-10.2387
▁природа	-10.2387
▁сожалению	-10.2387
▁таких	-10.239
▁полиция	-10.2394
▁плата	-10.2397
▁театр	-10.24
▁каждо	-10.2404
▁задача	-10.2404
▁дрожь	-10.2407
хар	-10.2415
▁смотришь	-10.2423
▁диана	-10.2425
▁сделали	-10.2428
▁молоды	-10.2432
▁лариса	-10.2441
p	-10.2443
▁нахожу	-10.2443
▁гер	-10.2444
▁плав	-10.2445
▁оказывается	-10.2446
▁пригласил	-10.2448
▁проехал	-10.2448
▁позвал	-10.2448
▁войны	-10.2449
▁лето	-10.245
▁рос	-10.245
вания	-10.2451
учиться	-10.2453
▁боя	-10.2455
▁мамочк	-10.2457
▁весел	-10.246
▁дожди	-10.2461
▁коп	-10.2465
▁движет	-10.2469
▁испугал	-10.2475
▁наступление	-10.2478
▁мишк	-10.2481
▁тай	-10.2481
иних	-10.2486
тяж	-10.2489
▁курсе	-10.2491
▁обще	-10.2496
▁северн	-10.2498
▁пистолет	-10.2509
▁фирма	-10.2509
▁валера	-10.2509
▁сообщение	-10.2511
▁ры	-10.2514
▁однако	-10.2517
▁шоколад	-10.252
▁климат	-10.2523
▁киев	-10.2523
мин	-10.2526
▁лег	-10.2534
▁петров	-10.2535
▁солнца	-10.2541
▁люб	-10.2542
▁заканчива	-10.2549
▁доступ	-10.2562
▁предлагаю	-10.2565
▁дыр	-10.2565
▁подразумевает	-10.2571
▁юлия	-10.2572
▁траву	-10.2574
▁странно	-10.2575
джи	-10.258
▁придает	-10.2587
▁рассказал	-10.2587
▁туш	-10.2587
▁сид	-10.2593
дор	-10.2594
▁обеда	-10.2614
▁повар	-10.2617
▁пром	-10.2621
▁заболел	-10.2623
▁плен	-10.2623
▁местны	-10.2629
▁детеныш	-10.2633
▁означает	-10.2633
▁отсутству	-10.2633
▁владелец	-10.2633
▁закричал	-10.2633
▁анжела	-10.2634
▁священник	-10.2636
▁явно	-10.2638
▁ц	-10.2638
цен	-10.2653
▁весна	-10.2654
▁подняли	-10.2654
▁исключение	-10.2657
8	-10.2663
▁меч	-10.2667
дать	-10.2672
▁свеч	-10.2684
▁идея	-10.2695
▁музей	-10.2695
▁зрение	-10.2695
▁признал	-10.2695
▁снижает	-10.2696
▁улыбнулась	-10.2697
зу	-10.2698
▁плот	-10.2698
▁дому	-10.2699
▁ушла	-10.27
▁порода	-10.2702
▁взять	-10.2703
▁шотланд	-10.2712
▁всяк	-10.272
▁мышь	-10.272
▁спокойно	-10.2726
▁поход	-10.2735
▁бан	-10.2735
▁продолжа	-10.275
▁раск	-10.275
которой	-10.2753
▁принц	-10.2754
тин	-10.2756
%	-10.2758
▁каблук	-10.2758
▁вместе	-10.2758
вый	-10.276
▁ча	-10.2763
▁понимает	-10.2763
овский	-10.2764
▁хоккей	-10.2764
▁удивил	-10.2767
▁блокирует	-10.2783
кова	-10.2788
▁пройде	-10.2789
▁отлич	-10.2793
▁движения	-10.2794
▁говорят	-10.2797
ногу	-10.2798
▁брал	-10.2799
▁формы	-10.28
▁дж	-10.2811
▁закрывают	-10.2816
▁метров	-10.2822
▁холодильник	-10.2824
▁душе	-10.2826
▁строя	-10.2827
▁писател	-10.2828
▁страдает	-10.2831
▁колонн	-10.2835
▁ума	-10.2835
▁мальчишка	-10.2838
▁40	-10.284
▁папу	-10.2842
▁вс	-10.2856
овна	-10.2856
▁вкусно	-10.2858
крат	-10.2859
пла	-10.2859
кур	-10.2863
▁существо	-10.2873
▁крокодил	-10.2873
▁бутылк	-10.2875
▁лампа	-10.2879
▁игрушка	-10.2882
▁неделю	-10.2885
▁принима	-10.2885
▁котят	-10.2886
ставки	-10.2886
▁сильнее	-10.2886
▁покажет	-10.2886
▁вирус	-10.2888
▁28	-10.289
▁разбира	-10.2898
▁разны	-10.2903
▁реальность	-10.2904
▁шести	-10.291
▁пение	-10.2924
▁обслуживает	-10.2929
▁черная	-10.2933
кот	-10.2934
мысл	-10.2937
мар	-10.2938
прежнем	-10.2949
▁диагностик	-10.2949
▁предполагает	-10.2951
▁фу	-10.2951
▁замахал	-10.2952
▁хорошее	-10.2955
▁преступник	-10.2957
▁звал	-10.2966
▁двигал	-10.2968
▁просил	-10.2968
▁таню	-10.2969
▁продукция	-10.297
▁комната	-10.2971
▁внизу	-10.2974
хватывает	-10.2979
▁начина	-10.2988
▁картинк	-10.2993
эн	-10.2996
▁питает	-10.2997
▁ген	-10.2997
▁удал	-10.3006
▁рис	-10.3008
бал	-10.3008
▁замк	-10.301
▁королев	-10.3011
можешь	-10.3012
▁захохотал	-10.3014
▁родословн	-10.3014
▁спасибо	-10.3014
▁приблизил	-10.3014
▁кусок	-10.3014
▁произоше	-10.3015
▁сверкал	-10.302
▁уборк	-10.302
▁совершенно	-10.3026
▁распознает	-10.3029
▁выгляд	-10.3032
▁здорово	-10.3037
▁давал	-10.3037
▁планета	-10.3038
▁различны	-10.305
▁джо	-10.3051
▁факт	-10.3052
▁красит	-10.3055
▁предпочитает	-10.3057
ливо	-10.3057
▁низко	-10.3062
счет	-10.3065
▁карт	-10.3065
▁сертификат	-10.3068
▁первым	-10.3074
▁подскажи	-10.3078
▁бухгалтер	-10.3079
▁алевтина	-10.3079
▁курорт	-10.3079
▁молока	-10.308
▁бас	-10.3082
▁квартире	-10.3082
▁набирал	-10.3084
няк	-10.3084
йорк	-10.3087
▁желт	-10.3093
дом	-10.3093
▁лент	-10.31
▁черны	-10.3104
▁разработчик	-10.3104
▁ключи	-10.3113
▁подруга	-10.3116
▁охран	-10.3117
▁внутр	-10.3125
несла	-10.3129
вожу	-10.3132
▁смех	-10.3136
▁красно	-10.3137
▁разбираешь	-10.3142
▁раньше	-10.3144
▁хмуро	-10.3144
▁слева	-10.3145
▁поразил	-10.3145
▁детали	-10.3145
▁войска	-10.3148
дешь	-10.3149
▁листа	-10.3152
▁горы	-10.3152
▁покупает	-10.3157
овую	-10.3157
▁население	-10.316
▁запомнил	-10.3163
▁тех	-10.3168
▁видне	-10.3169
▁возможности	-10.3173
▁кра	-10.3175
словно	-10.3182
▁трус	-10.3184
▁устал	-10.3185
▁подс	-10.3188
▁плат	-10.319
ович	-10.3193
▁спортивны	-10.3198
▁температуру	-10.3202
▁фамилия	-10.321
▁степень	-10.321
▁пароход	-10.3211
ведения	-10.3222
▁сделало	-10.3222
▁женщину	-10.3224
▁акул	-10.3225
▁рассматривал	-10.3227
▁разбирает	-10.3227
▁отдел	-10.3229
▁рабочий	-10.3237
▁дали	-10.3238
▁васька	-10.324
▁сара	-10.3245
крас	-10.3245
▁деревн	-10.3258
▁вопл	-10.326
▁строительн	-10.3262
полне	-10.3264
▁завершил	-10.3276
▁лице	-10.3276
▁замечательн	-10.3277
свер	-10.3277
аться	-10.3279
▁пункт	-10.3288
▁крокодилы	-10.3288
лоток	-10.329
▁поступил	-10.3291
▁дарит	-10.3296
▁бумаг	-10.3306
▁полина	-10.3315
▁писатель	-10.3315
уша	-10.3318
▁гар	-10.3319
▁рукой	-10.3319
оставляет	-10.3321
▁экс	-10.3322
▁виноград	-10.3325
▁фат	-10.3326
▁незнакомц	-10.3327
▁вставк	-10.3336
▁фронт	-10.3336
▁аллерги	-10.3343
▁килограмм	-10.3343
▁выиграл	-10.3343
▁заранее	-10.3343
▁заявления	-10.3343
▁айфон	-10.3343
▁гром	-10.3344
▁щипал	-10.3345
▁стук	-10.3346
▁местность	-10.3347
нский	-10.3351
▁дурак	-10.3353
местно	-10.3354
▁школьны	-10.3356
▁права	-10.3366
▁мужчин	-10.3366
▁порци	-10.3367
▁прибыл	-10.3391
▁трое	-10.3395
▁институт	-10.34
як	-10.3401
▁медведи	-10.3406
▁верит	-10.3409
▁семи	-10.3409
жег	-10.341
▁слушай	-10.341
▁собрание	-10.341
▁двину	-10.3413
▁спят	-10.3416
▁мерз	-10.3416
▁высокая	-10.3416
▁концерт	-10.3417
▁наше	-10.3424
▁франции	-10.3428
▁останавливается	-10.343
▁чувства	-10.3432
▁требуют	-10.3433
▁плоды	-10.3438
▁взорвал	-10.3438
▁радостно	-10.3441
▁чьи	-10.3446
▁алла	-10.3448
▁звать	-10.3454
▁проче	-10.3461
▁полно	-10.3461
▁ручка	-10.3463
▁тень	-10.3463
▁руди	-10.3469
▁граф	-10.3471
мир	-10.3474
дан	-10.3475
▁тор	-10.3477
▁расхохотал	-10.3477
▁понимал	-10.3477
▁ткани	-10.3477
▁окружает	-10.3478
▁разносит	-10.3478
▁рассмотрел	-10.3478
▁небольшо	-10.3478
▁отказ	-10.3482
▁галя	-10.3485
▁гид	-10.3486
▁искр	-10.3492
▁газет	-10.3497
▁используется	-10.3498
▁страшно	-10.3503
ковый	-10.3504
▁холодный	-10.3504
▁s	-10.3508
▁молни	-10.3508
ждешь	-10.3509
роп	-10.3512
▁запад	-10.3512
действительности	-10.352
▁изготовлен	-10.352
разность	-10.352
▁старост	-10.3528
юю	-10.3533
▁европ	-10.3537
▁лукав	-10.3537
▁противник	-10.354
▁заплакал	-10.3545
▁убирает	-10.3545
▁подтвердил	-10.3545
▁манжет	-10.3545
▁включи	-10.3546
▁стройн	-10.3546
▁норм	-10.3546
▁кошку	-10.3546
сход	-10.3547
▁события	-10.3547
▁дало	-10.3548
▁беспомощно	-10.3552
▁эмиль	-10.3553
▁надел	-10.3555
▁зиму	-10.3556
▁выпуск	-10.3557
▁городом	-10.3559
▁ток	-10.3559
▁еды	-10.3562
анный	-10.3563
▁мальчишки	-10.3565
▁ощущает	-10.3565
▁спрашивает	-10.3567
▁одежду	-10.3568
▁митя	-10.3568
▁вернет	-10.357
▁коридор	-10.3577
напал	-10.3578
▁уважаю	-10.3579
▁статья	-10.3581
двинулся	-10.3585
давать	-10.3595
▁вывод	-10.3601
▁научн	-10.3606
▁слез	-10.3607
▁ученик	-10.3608
▁диплом	-10.3613
▁адвокат	-10.3614
▁напротив	-10.3614
▁леонид	-10.3614
▁событие	-10.3615
▁наступал	-10.3615
▁бьет	-10.3615
▁проснул	-10.3617
▁пух	-10.3618
зин	-10.3621
▁крайне	-10.3625
▁дыхание	-10.363
▁секунд	-10.3631
▁долг	-10.3639
6	-10.3641
▁груз	-10.3648
тру	-10.3651
▁слил	-10.3653
бегает	-10.3666
▁вед	-10.3669
▁свободу	-10.3678
▁вентиляци	-10.3678
▁революци	-10.368
▁разговариваю	-10.3682
▁довольно	-10.3683
▁увидеть	-10.3683
▁огурц	-10.3683
▁чемодан	-10.3683
▁съест	-10.3684
▁подозрительно	-10.3684
▁супер	-10.3685
▁деть	-10.3688
▁проводник	-10.369
▁рек	-10.369
▁жених	-10.3691
▁иран	-10.3702
▁картина	-10.3708
▁пустил	-10.371
▁инга	-10.3715
▁свист	-10.3715
▁распахнул	-10.3716
▁усел	-10.3718
▁поводу	-10.3719
▁проверк	-10.3721
▁творчеств	-10.3721
▁сюда	-10.3736
ъ	-10.3738
▁кредит	-10.3742
▁дорогой	-10.3743
▁никаки	-10.3746
чти	-10.3748
пот	-10.3748
▁использу	-10.3752
▁аэропорт	-10.3752
▁наличие	-10.3752
▁продавц	-10.3752
▁слушаешь	-10.3752
▁плавать	-10.3753
▁иванович	-10.3754
▁приближался	-10.3758
▁собственник	-10.376
▁дочка	-10.3762
▁популярность	-10.3763
▁слов	-10.3763
берг	-10.3774
▁доставляет	-10.3777
▁мог	-10.3778
▁юг	-10.3783
▁консул	-10.3785
▁сохраняет	-10.3802
▁метро	-10.3807
▁способом	-10.3807
▁профессиональны	-10.3814
▁берез	-10.3819
▁карьер	-10.3822
▁анекдот	-10.3822
▁кухня	-10.3822
▁думает	-10.3822
▁купа	-10.3822
▁примерн	-10.3825
▁камни	-10.3826
пасть	-10.3826
▁проверял	-10.3828
▁заросли	-10.3838
▁рассказыва	-10.3839
▁падал	-10.384
▁изучает	-10.3841
город	-10.3846
▁групп	-10.3849
▁скрип	-10.3854
▁употр	-10.386
▁прибав	-10.3863
▁улыба	-10.3873
рт	-10.3876
лли	-10.3877
▁прогулк	-10.3877
▁характеризует	-10.3879
▁публика	-10.388
мыш	-10.388
▁насос	-10.3888
▁навсегда	-10.3893
▁участок	-10.3893
▁патрон	-10.3893
▁василиса	-10.3893
▁чистит	-10.3893
▁посетил	-10.3894
▁пополня	-10.3895
▁обща	-10.3899
▁двойн	-10.39
▁сбросил	-10.3902
▁жидкость	-10.3907
▁вежливо	-10.3907
▁отвечает	-10.3907
▁кровью	-10.3911
▁задавать	-10.3913
▁мира	-10.3914
▁глуп	-10.3917
▁хозяева	-10.3918
▁миши	-10.3921
▁шахматы	-10.3922
арь	-10.3924
▁жарко	-10.3928
▁100	-10.3929
гулко	-10.393
▁прогноз	-10.393
тина	-10.3935
▁позже	-10.3938
▁особо	-10.3941
чал	-10.3943
▁парус	-10.3943
▁вред	-10.3949
▁льв	-10.3957
▁наполнял	-10.3959
▁ярослав	-10.3962
▁обработк	-10.3964
▁совокупность	-10.3964
▁структур	-10.3964
▁апреля	-10.3964
▁затем	-10.3966
▁засмеялся	-10.3974
▁доносил	-10.3978
▁молод	-10.3985
▁коробку	-10.3987
▁дн	-10.3992
▁чин	-10.3993
льная	-10.3995
▁благодарно	-10.4003
▁выходит	-10.4003
▁придет	-10.4005
▁идешь	-10.4009
▁богат	-10.4011
▁золот	-10.4013
рет	-10.4017
▁китай	-10.4025
▁застежк	-10.4034
▁георги	-10.4035
▁клапан	-10.4035
▁прячет	-10.4035
▁постара	-10.4035
▁робко	-10.4037
▁лошадей	-10.4038
▁пришли	-10.4038
▁завоевал	-10.404
▁ад	-10.404
▁морски	-10.4041
▁залез	-10.4043
▁ноября	-10.4045
▁прост	-10.4046
рев	-10.4047
▁наверное	-10.4057
▁щеночк	-10.4057
▁вызываю	-10.4061
▁брон	-10.4064
▁юноша	-10.4068
▁добавляет	-10.4074
▁поездка	-10.4075
▁ответь	-10.4078
▁пора	-10.4081
▁черного	-10.4089
▁мультфильмы	-10.4091
ший	-10.4094
▁американски	-10.4097
▁мяч	-10.4105
▁видео	-10.4105
▁тип	-10.4107
▁поддержк	-10.4117
▁грузчик	-10.4126
скать	-10.4129
▁имело	-10.4135
▁неудач	-10.4141
▁париж	-10.4148
▁кое	-10.415
▁руках	-10.4159
▁отличн	-10.4159
сарда	-10.4163
▁доктора	-10.4165
▁край	-10.4171
▁потряс	-10.4174
▁власти	-10.4174
▁звонит	-10.4174
▁лейтенант	-10.4179
▁недостатк	-10.4179
▁недоумение	-10.4179
▁лю	-10.418
▁счастье	-10.418
▁преодолевает	-10.418
▁карлсон	-10.418
▁сознание	-10.418
▁глубин	-10.4181
▁движ	-10.4181
▁бойцы	-10.4183
▁юри	-10.4183
▁танк	-10.4183
▁вызывал	-10.4184
▁вскор	-10.4188
▁заполнил	-10.4192
▁макароны	-10.4194
вис	-10.4194
▁подходит	-10.4196
чный	-10.4199
▁провод	-10.4201
▁стары	-10.4202
▁глубоки	-10.4203
▁правит	-10.4204
▁умерла	-10.4205
▁первы	-10.4211
▁полезны	-10.4212
▁обид	-10.4215
▁жен	-10.422
▁начн	-10.4231
▁каса	-10.4233
▁гордит	-10.4235
▁спустил	-10.4237
▁люба	-10.4242
▁устало	-10.4245
▁оберну	-10.4251
u	-10.4251
▁руслан	-10.4252
▁распродает	-10.4252
▁скончал	-10.4252
▁пьешь	-10.4253
▁потолк	-10.4253
▁ехал	-10.4254
▁понурил	-10.4255
▁облака	-10.4256
▁клетк	-10.4258
▁засмеялась	-10.4258
▁рак	-10.426
▁ман	-10.4267
▁кисло	-10.4269
▁третье	-10.4276
▁невозможно	-10.4279
▁месяца	-10.4286
▁гена	-10.4286
▁герой	-10.4289
▁един	-10.4293
▁парти	-10.4294
▁пути	-10.4296
▁фер	-10.4296
рел	-10.4296
▁выше	-10.4297
▁двое	-10.43
▁катю	-10.4302
▁запись	-10.4305
▁медсестра	-10.4307
▁отверстие	-10.431
▁мур	-10.4311
▁рассчитывает	-10.4311
▁карл	-10.4325
▁кондиционер	-10.4326
▁ремень	-10.4326
▁помощи	-10.4326
▁юлий	-10.4328
иха	-10.4328
▁обойти	-10.4337
щее	-10.4337
▁фр	-10.4338
▁ожидания	-10.4339
▁имени	-10.4347
ептически	-10.435
▁строительны	-10.4351
▁мужчину	-10.4355
▁яблок	-10.4355
▁прилетел	-10.4355
▁картины	-10.4356
▁песок	-10.4357
▁длилось	-10.4358
▁водител	-10.4359
нц	-10.437
зер	-10.4372
тс	-10.4384
▁француз	-10.4387
▁бат	-10.4389
▁долги	-10.439
▁поменял	-10.439
▁26	-10.4391
▁эксперимент	-10.4392
▁защитит	-10.4393
▁получили	-10.4394
емое	-10.4398
▁ботинки	-10.44
▁кирпич	-10.44
▁увлечение	-10.44
▁ульяна	-10.44
▁высунул	-10.44
▁сдавал	-10.4402
▁освещение	-10.4403
▁рада	-10.4404
▁понять	-10.4404
▁пруд	-10.4405
▁никола	-10.4407
▁дим	-10.4407
▁объявляет	-10.441
▁незнайк	-10.441
▁институте	-10.4411
▁моем	-10.4413
▁горел	-10.4417
▁должность	-10.4419
▁весной	-10.4422
усь	-10.4424
▁губернатор	-10.4432
▁крас	-10.4445
▁пятерк	-10.4459
▁обрадовался	-10.446
▁дар	-10.446
▁выдает	-10.4461
▁вдов	-10.4461
▁оборвал	-10.4469
▁греет	-10.4472
▁скандал	-10.4475
▁растений	-10.4475
▁знать	-10.4475
▁поселок	-10.4475
▁спутник	-10.4475
▁смотрят	-10.4475
▁потертост	-10.4476
гиб	-10.4476
▁тетя	-10.4477
▁обступил	-10.4477
▁должн	-10.4487
ёшь	-10.4489
▁пик	-10.4489
▁передает	-10.4492
▁территори	-10.4492
▁напитки	-10.4494
▁просыпа	-10.4498
▁покупа	-10.4506
▁кота	-10.4511
▁друзьями	-10.4514
▁опер	-10.4519
цу	-10.4528
▁оплат	-10.4532
▁продукт	-10.4533
▁судьб	-10.4534
▁пицц	-10.4536
▁общество	-10.4542
▁сибир	-10.4544
ству	-10.4549
▁администратор	-10.455
▁питомник	-10.455
▁кухни	-10.455
▁жители	-10.455
▁детям	-10.455
▁предел	-10.455
▁вошл	-10.4552
▁подбирает	-10.4554
▁коллекци	-10.4555
▁животного	-10.4556
▁цар	-10.4559
▁практически	-10.4561
▁мари	-10.4563
▁хорошим	-10.4565
▁дружно	-10.457
ический	-10.457
▁пе	-10.4573
▁мел	-10.4574
▁поступки	-10.4583
▁музыкальны	-10.4585
▁кружк	-10.4587
▁спала	-10.4591
▁жили	-10.4596
▁учеб	-10.4596
▁31	-10.4598
▁реки	-10.4601
▁сделай	-10.4603
▁склон	-10.4603
▁микро	-10.4603
▁матч	-10.4604
▁отличным	-10.4611
▁летит	-10.4614
мут	-10.4615
▁считал	-10.4617
▁упала	-10.4619
▁принадлежал	-10.4624
▁штамп	-10.4626
▁изобразил	-10.4626
▁побеждает	-10.4626
▁сержант	-10.4626
▁поболта	-10.4626
▁возбуждение	-10.4626
▁дэн	-10.4626
▁кам	-10.4628
▁пишу	-10.4629
ено	-10.4629
▁позволь	-10.4632
▁женя	-10.4634
галька	-10.4634
▁коробка	-10.4645
▁конь	-10.465
▁рисовать	-10.4653
▁обучение	-10.4655
водил	-10.466
▁ракет	-10.4663
лия	-10.4664
▁строй	-10.467
луж	-10.4674
▁советски	-10.4677
▁замерз	-10.4682
летни	-10.4683
▁валяется	-10.4686
▁бен	-10.4689
▁принимал	-10.4691
▁врага	-10.4693
▁бессмерт	-10.4699
▁воскресенье	-10.4702
▁ядовит	-10.4702
▁пушисты	-10.4702
▁дарья	-10.4703
▁доставал	-10.4703
▁сашка	-10.4707
▁голов	-10.4708
▁тридцать	-10.4709
▁вторник	-10.471
бар	-10.471
▁ровно	-10.4715
ильщик	-10.4722
▁жену	-10.4729
шко	-10.4733
▁открывал	-10.4734
▁плов	-10.4736
▁специальны	-10.4737
▁шут	-10.4739
▁веб	-10.4743
▁вспоминал	-10.4747
▁видит	-10.4748
▁оглядывал	-10.4753
▁магнит	-10.4755
▁роботы	-10.4756
нная	-10.4765
▁уж	-10.4775
▁дракон	-10.4775
▁тар	-10.4776
▁тема	-10.4777
▁атмосфер	-10.4779
▁стоматолог	-10.4779
▁барабан	-10.4779
▁пламя	-10.4779
▁любви	-10.4779
▁накрывает	-10.4779
▁приобретают	-10.4782
▁сплю	-10.4783
▁палец	-10.4787
▁взгляды	-10.4788
▁обувь	-10.4788
▁цикл	-10.4792
▁тоска	-10.4795
▁преимущество	-10.4796
пк	-10.4798
▁россиян	-10.4798
▁повесил	-10.4799
▁хранени	-10.4801
раб	-10.4807
▁карандаш	-10.4808
вернуться	-10.4814
▁выгодно	-10.4817
▁вруч	-10.4817
▁май	-10.4819
▁танцевать	-10.482
ице	-10.4822
▁став	-10.4824
▁расс	-10.4829
▁старика	-10.4831
▁баран	-10.4832
▁акци	-10.4833
▁информации	-10.4837
чек	-10.4839
▁дроб	-10.4841
▁холодно	-10.4847
▁обещал	-10.4848
▁дворе	-10.4852
▁сдал	-10.4852
▁лежат	-10.4855
▁топ	-10.4856
▁заслужил	-10.4856
▁император	-10.4856
▁мефоди	-10.4856
▁перспектив	-10.4856
▁филипп	-10.4856
▁матиуш	-10.4857
▁пишут	-10.4857
шев	-10.4858
▁гараж	-10.4858
▁качает	-10.4859
▁компани	-10.4861
▁справк	-10.4863
▁гуг	-10.4865
▁помогал	-10.4872
▁ближе	-10.4874
▁сняла	-10.4879
▁туго	-10.4888
▁тьма	-10.4896
▁заливает	-10.4907
▁дождя	-10.4908
▁подняло	-10.4911
▁рога	-10.4917
▁одном	-10.492
▁получ	-10.4921
▁приходил	-10.4924
▁заполнял	-10.4926
▁поднимал	-10.493
▁уронил	-10.4935
▁кушает	-10.4935
▁физик	-10.4935
▁анализ	-10.4935
▁порош	-10.4937
▁элина	-10.4938
ивается	-10.4939
чего	-10.4939
▁максимальн	-10.494
▁восьми	-10.4943
▁фон	-10.4955
▁доход	-10.4958
▁девчонка	-10.4959
▁осмотр	-10.4965
▁металлически	-10.4966
▁операция	-10.4978
▁британски	-10.4979
▁специально	-10.4985
▁скрывал	-10.4987
▁повсе	-10.499
▁охранник	-10.4993
▁кончи	-10.4994
▁прод	-10.4998
изатор	-10.5001
▁граждан	-10.5003
▁екатерина	-10.5013
▁заглушил	-10.5013
▁сергеевич	-10.5013
▁разрушил	-10.5013
▁заправляет	-10.5013
▁шашки	-10.5015
▁оглянулась	-10.5015
▁убийство	-10.5015
▁бело	-10.5016
▁дожде	-10.5019
▁спину	-10.5022
▁новости	-10.5023
▁очаровательна	-10.5023
▁стану	-10.5026
▁продавал	-10.5029
▁провел	-10.503
▁реально	-10.5038
щего	-10.5044
ндр	-10.5044
жить	-10.5061
▁открыт	-10.5064
ливый	-10.5065
▁банд	-10.5066
ьем	-10.5066
▁пет	-10.5068
▁самого	-10.5069
▁судья	-10.5071
▁стороны	-10.5078
рог	-10.508
▁разразил	-10.5081
▁получает	-10.5081
ясь	-10.5082
▁развод	-10.5088
▁низ	-10.5089
▁украшае	-10.509
▁деревьев	-10.5093
▁проглотил	-10.5093
▁штирлиц	-10.5093
впечатление	-10.5093
▁прикрыл	-10.5094
▁майор	-10.5096
▁пережива	-10.5096
рост	-10.5098
▁гоша	-10.5098
люсь	-10.5099
енным	-10.5099
▁гроз	-10.5101
▁применяет	-10.5101
▁ролик	-10.5101
▁лично	-10.5102
▁гнев	-10.5103
логи	-10.5111
▁звонил	-10.5114
▁длин	-10.5116
▁помнит	-10.5118
▁здания	-10.512
▁путина	-10.5122
▁родственник	-10.5124
▁отзыв	-10.5128
фан	-10.5128
▁уста	-10.5131
▁съезди	-10.5145
on	-10.5145
▁готова	-10.515
▁никит	-10.5153
▁видеть	-10.5154
▁потеряла	-10.5156
▁встретило	-10.5161
▁водо	-10.5161
ватель	-10.5171
▁использовать	-10.5173
▁производят	-10.5173
▁физкультур	-10.5173
▁попытк	-10.5173
▁выразил	-10.5173
▁вокзал	-10.5173
▁платья	-10.5173
звучит	-10.5173
▁сторож	-10.5175
▁показал	-10.5175
▁хорошего	-10.5176
▁кеша	-10.5177
▁десяти	-10.5179
▁прекрасн	-10.518
▁стирает	-10.5181
▁платон	-10.5182
▁территория	-10.5187
▁корзин	-10.5187
▁пап	-10.5187
▁единица	-10.5189
▁пятк	-10.519
▁встроенны	-10.5192
секретарь	-10.5194
▁пошли	-10.5196
▁дно	-10.5197
▁веселы	-10.5198
▁крепкий	-10.5198
▁изучаю	-10.5199
▁захватыва	-10.5201
шник	-10.5205
▁сделает	-10.5209
▁гун	-10.5211
▁продолжается	-10.5213
▁закат	-10.5213
▁фонар	-10.5213
▁леша	-10.5214
▁готовишь	-10.5215
▁мешок	-10.5215
▁валерий	-10.5218
▁возвраща	-10.5225
▁страну	-10.5229
▁предоставляют	-10.523
▁29	-10.5233
▁почт	-10.5242
▁мон	-10.5244
▁сетк	-10.5244
час	-10.525
красят	-10.5252
▁бюджет	-10.5253
▁рюкзак	-10.5253
▁затянул	-10.5253
▁четверг	-10.5253
▁пиппи	-10.5254
▁центральн	-10.5254
▁буквально	-10.5254
▁семейн	-10.5254
▁тренер	-10.5254
▁запрос	-10.5254
▁толстяк	-10.5254
▁осматривает	-10.5257
▁технологии	-10.5257
▁оригинальны	-10.526
▁лос	-10.5263
▁ставит	-10.5264
▁веду	-10.5269
▁прибавлени	-10.527
енные	-10.5273
▁основном	-10.5273
ством	-10.5274
▁прочность	-10.5274
▁записк	-10.5276
▁порог	-10.5284
станешь	-10.5286
▁саду	-10.5295
▁площадка	-10.5303
▁счастлив	-10.5304
▁службы	-10.5308
▁макар	-10.5311
▁тим	-10.5311
▁огромн	-10.5318
▁погиб	-10.5318
▁влия	-10.532
▁расстояние	-10.5321
▁экзамены	-10.5324
▁льет	-10.533
▁дельфин	-10.5335
▁застегивает	-10.5335
▁иннокентий	-10.5335
▁разочаровал	-10.5335
▁собеседник	-10.5335
▁сапог	-10.5335
▁выронил	-10.5335
▁владельца	-10.5335
▁прохор	-10.5335
▁заменил	-10.5335
▁вошли	-10.5337
▁пища	-10.5337
▁тревога	-10.5343
▁опаздыва	-10.5345
▁далеко	-10.5349
▁организм	-10.5349
▁научил	-10.535
▁приготовил	-10.5351
ованные	-10.5362
▁вершин	-10.5364
▁копи	-10.5367
▁ветр	-10.5368
▁свеж	-10.5369
▁спеш	-10.5376
▁помога	-10.5377
▁выполня	-10.5378
▁привез	-10.5385
▁хохл	-10.5386
▁поеду	-10.5388
▁ловя	-10.5389
ывание	-10.5398
▁подошва	-10.5403
▁оплата	-10.5408
▁рим	-10.5408
▁коровы	-10.5408
▁вопросов	-10.5412
тихоньк	-10.5412
▁генератор	-10.5417
▁восторг	-10.5417
▁убивал	-10.5417
▁комеди	-10.5417
▁бокал	-10.5417
▁владимирович	-10.5417
▁иначе	-10.5417
▁волнение	-10.5418
▁нерв	-10.5419
▁ведро	-10.542
▁полицейский	-10.542
▁петух	-10.5421
▁виды	-10.5427
▁сим	-10.5427
▁производитель	-10.5428
▁изготовлени	-10.5429
▁сверч	-10.543
эс	-10.5431
▁тронул	-10.5432
▁быстры	-10.5436
енной	-10.5436
▁ксан	-10.544
▁кг	-10.544
▁освежа	-10.5441
▁доклад	-10.5445
▁улица	-10.5446
▁ставил	-10.5447
▁сухо	-10.5452
▁пустын	-10.5454
▁москвы	-10.5456
▁пассажиры	-10.5456
▁владе	-10.5458
▁скол	-10.546
▁кожа	-10.5462
▁бригад	-10.5463
▁валентин	-10.5468
▁баба	-10.5469
енька	-10.5474
волок	-10.5482
▁сладк	-10.5491
▁воли	-10.5494
▁успе	-10.5496
▁путешествова	-10.5499
▁аромат	-10.5499
▁снаряд	-10.5499
▁витамин	-10.5499
▁корсет	-10.5499
▁берлин	-10.5499
▁внук	-10.55
вают	-10.5501
▁залаял	-10.5502
▁нажал	-10.5511
▁повернулся	-10.5512
вился	-10.5512
▁старинн	-10.5512
▁цели	-10.5513
▁проверил	-10.5515
▁электрическ	-10.5521
▁хищник	-10.5522
цкий	-10.5523
▁высоки	-10.5532
▁сказки	-10.5533
вез	-10.5535
▁рама	-10.5538
вое	-10.5539
▁особ	-10.554
▁27	-10.5545
▁карман	-10.5547
▁чье	-10.5548
▁английски	-10.5552
▁строк	-10.5552
▁приз	-10.5558
оход	-10.5567
▁учит	-10.5573
▁активны	-10.5575
▁налогов	-10.5576
▁кролик	-10.558
–	-10.5583
▁альфред	-10.5583
▁отталкива	-10.5583
▁проигрыва	-10.5583
▁сочувственн	-10.5583
▁плакал	-10.5583
уровень	-10.5583
ву	-10.5585
▁героя	-10.5585
▁тер	-10.559
евич	-10.5591
▁абдулл	-10.5593
▁декоративны	-10.5595
катил	-10.5596
вало	-10.5597
▁выступа	-10.5599
вшее	-10.5604
▁поддает	-10.5605
▁юрист	-10.5607
▁шутк	-10.5617
ьщик	-10.5618
пел	-10.5622
▁слышит	-10.5625
▁менял	-10.5627
▁встретили	-10.5627
▁политическ	-10.5629
▁геолог	-10.5632
▁сжала	-10.5635
▁енот	-10.5636
▁собакой	-10.5638
ические	-10.5643
▁необходимо	-10.5644
ленка	-10.5648
овик	-10.5648
▁солнечны	-10.5649
работать	-10.565
▁следующ	-10.565
▁президента	-10.5652
▁зато	-10.5653
▁оде	-10.5654
▁расходы	-10.5656
▁встречал	-10.5659
фон	-10.5661
▁средство	-10.5664
▁отстегива	-10.5667
▁изготавливает	-10.5667
▁равновесие	-10.5667
▁реакци	-10.5667
▁снисходительно	-10.5667
▁цифры	-10.5667
▁чиновник	-10.5667
▁книжку	-10.5667
▁змей	-10.5667
чной	-10.5669
▁дядьк	-10.567
▁заметно	-10.5671
▁четко	-10.5672
▁украл	-10.5673
▁трети	-10.5683
▁светло	-10.5683
▁пассажиров	-10.5683
▁солнечно	-10.5684
▁итог	-10.5686
▁помещения	-10.5692
▁нарисовал	-10.5696
▁весит	-10.5701
▁царапин	-10.5709
▁плюшевы	-10.5709
цвет	-10.5715
▁нога	-10.5719
▁написан	-10.572
▁полоска	-10.572
▁зрительно	-10.5723
▁связан	-10.5728
▁презрительно	-10.5731
▁зон	-10.5733
▁мечтает	-10.5733
▁достала	-10.5742
▁выполняют	-10.5745
▁велик	-10.5749
▁массив	-10.5752
▁василина	-10.5753
▁убытки	-10.5753
▁критик	-10.5759
▁горд	-10.576
▁расчет	-10.5763
▁звезд	-10.5765
▁услуг	-10.5769
▁крови	-10.577
▁считаю	-10.577
▁женьк	-10.5772
▁гошк	-10.5773
▁фотограф	-10.5773
▁церкви	-10.5776
▁ездил	-10.5776
▁заведения	-10.5777
▁лапы	-10.5778
▁стр	-10.5778
▁слив	-10.5779
▁дружит	-10.5781
▁окрас	-10.5785
▁линия	-10.5786
▁стул	-10.5787
▁подарком	-10.579
▁носят	-10.5791
▁тяжелы	-10.5792
▁исправно	-10.5792
▁значени	-10.5797
▁ворот	-10.5801
▁име	-10.5803
▁нападение	-10.5806
▁грибы	-10.5821
зем	-10.5822
▁кнопк	-10.583
▁привод	-10.5831
▁кис	-10.5831
▁кошеч	-10.5834
▁зоопарк	-10.5837
▁ресурс	-10.5837
▁рисунок	-10.5837
▁нарушил	-10.5837
▁коротко	-10.5837
▁матрас	-10.5837
▁приятеля	-10.5837
▁помидор	-10.5837
▁служил	-10.5837
▁сервис	-10.5838
▁кабин	-10.5838
▁таком	-10.5839
▁широки	-10.5839
▁мороженое	-10.5839
▁закл	-10.5839
▁открытие	-10.584
▁юрка	-10.5842
▁шер	-10.5845
▁деревянн	-10.5848
▁вал	-10.5849
▁детск	-10.5851
▁шуб	-10.5851
▁бурно	-10.5858
▁иры	-10.5863
щение	-10.5866
▁головк	-10.5867
▁царь	-10.587
▁потери	-10.5871
▁коров	-10.5876
▁жены	-10.5881
▁деревню	-10.5882
▁столб	-10.5883
▁красавица	-10.5883
▁пошло	-10.5887
▁печат	-10.589
▁свари	-10.5895
▁инди	-10.5895
▁делали	-10.5895
▁другого	-10.5897
▁моря	-10.5901
▁алис	-10.5907
▁потеря	-10.5913
▁гра	-10.5914
▁езд	-10.5916
▁спасл	-10.5917
▁горяч	-10.5918
▁обменял	-10.5918
▁курса	-10.5919
▁аппетит	-10.5923
▁выдержал	-10.5923
▁эдуард	-10.5923
▁миранда	-10.5923
▁беспокойство	-10.5923
▁внешни	-10.5923
▁колен	-10.5923
▁решительно	-10.5923
▁заиграл	-10.5923
▁вадим	-10.5923
▁состоянии	-10.5923
▁приоткрыл	-10.5923
▁ярослава	-10.5925
▁испытания	-10.5932
▁матве	-10.5939
▁ради	-10.594
▁част	-10.5941
▁лампочка	-10.5942
▁уши	-10.5951
▁знала	-10.5958
▁домашк	-10.5959
▁сила	-10.5959
ино	-10.5961
▁исполнение	-10.5972
▁границы	-10.5983
▁третьем	-10.5985
▁употребляем	-10.5985
▁заменит	-10.5985
ового	-10.5987
▁маме	-10.5987
▁стру	-10.5988
▁описывает	-10.5993
▁трав	-10.5997
царило	-10.5997
▁сорвал	-10.5999
▁ноч	-10.6
▁подарк	-10.6007
▁бегать	-10.6009
▁ближайш	-10.601
▁зашел	-10.601
▁заяц	-10.6011
▁чистот	-10.6011
▁двенадцат	-10.6011
▁потерпел	-10.6015
▁находишься	-10.6016
шины	-10.6018
▁заморгал	-10.6018
▁смол	-10.6018
▁уничтожил	-10.602
▁газеты	-10.6021
▁выключить	-10.6023
▁мамой	-10.6025
▁бросает	-10.6031
▁трава	-10.6032
▁элли	-10.6036
стью	-10.6041
▁смог	-10.6041
очник	-10.6045
▁сном	-10.6048
▁тетк	-10.6052
▁легки	-10.6053
▁устойчивость	-10.6053
крой	-10.6059
▁летает	-10.6059
▁татьяна	-10.6061
▁загудел	-10.6067
▁тьм	-10.6069
▁тщательно	-10.6077
▁юр	-10.6086
▁марс	-10.6086
▁хими	-10.6088
▁супруга	-10.6095
▁рассказывал	-10.6096
▁невесело	-10.6098
▁обозначает	-10.6098
▁обиженн	-10.6098
▁кавалер	-10.6098
▁пожил	-10.6098
▁постели	-10.6098
▁помнишь	-10.6099
▁квас	-10.6099
шего	-10.6099
▁пальце	-10.61
▁почв	-10.6102
▁костер	-10.6105
играть	-10.6105
▁задает	-10.6107
▁поздравля	-10.6111
▁жила	-10.6112
▁гостиниц	-10.6124
ическа	-10.6125
▁предал	-10.6125
▁щи	-10.6126
▁германии	-10.6126
▁съе	-10.6129
▁общение	-10.613
▁рул	-10.6135
▁вырос	-10.6136
▁палатк	-10.6137
▁остановилась	-10.6141
▁электрик	-10.6145
енд	-10.6149
▁души	-10.6151
▁молчал	-10.6152
▁займ	-10.6152
▁течение	-10.6157
нор	-10.6159
▁связи	-10.616
▁первое	-10.616
▁жарен	-10.6161
ьев	-10.6165
одку	-10.6165
енько	-10.6166
▁колени	-10.6167
▁установил	-10.6174
▁истори	-10.6179
▁использую	-10.618
▁правде	-10.618
ленька	-10.6182
плав	-10.6183
кнул	-10.6184
▁андрюша	-10.6186
▁инспектор	-10.6186
▁наслажда	-10.6186
▁штраф	-10.6186
▁скидк	-10.6186
▁зарезал	-10.6186
▁вздохнул	-10.6187
▁учителе	-10.6188
▁старт	-10.619
▁хотит	-10.619
▁автомобили	-10.6191
▁банке	-10.6192
▁памятник	-10.6193
▁ритм	-10.6195
▁славк	-10.6196
▁окружал	-10.6196
▁овощи	-10.6197
▁нашей	-10.62
нный	-10.6203
ген	-10.6203
▁бабушк	-10.6208
▁атаку	-10.6208
▁век	-10.6209
▁леш	-10.6215
▁бос	-10.6215
▁измерени	-10.6218
▁господ	-10.6219
▁варен	-10.6219
▁леж	-10.6219
▁гуля	-10.622
▁красная	-10.6222
▁машинка	-10.6224
▁истине	-10.6224
▁покр	-10.6225
▁кругл	-10.6226
▁помчал	-10.6228
▁ир	-10.6229
▁тач	-10.6231
▁продал	-10.6232
▁обычн	-10.6233
первы	-10.624
▁крутил	-10.6242
▁произведение	-10.6244
бель	-10.6249
твое	-10.6253
вину	-10.6254
▁особенност	-10.6256
▁рыбалку	-10.6264
▁бронз	-10.6272
▁технолог	-10.6273
пп	-10.6275
▁факультет	-10.6275
▁сюжет	-10.6275
▁поджал	-10.6276
▁чувствует	-10.6277
▁выхватил	-10.6277
▁вещество	-10.6287
▁сигарет	-10.629
▁сны	-10.629
▁кит	-10.629
руль	-10.6293
▁красивая	-10.6293
▁ласк	-10.6295
▁здоров	-10.6299
▁снимк	-10.6302
тели	-10.6303
рах	-10.6304
▁раствор	-10.6304
▁мыши	-10.6305
чиха	-10.631
▁опасны	-10.6313
▁заказал	-10.6316
▁звание	-10.6318
▁череп	-10.6319
ушки	-10.632
рек	-10.6323
▁полная	-10.6325
▁кают	-10.6325
▁заболе	-10.633
▁фильтр	-10.6331
бил	-10.6333
▁остановка	-10.6334
▁странны	-10.6334
▁окрестност	-10.6346
▁электрически	-10.6347
что	-10.6349
▁почувствовала	-10.6349
c	-10.6352
вшаяся	-10.6352
▁отворил	-10.6354
▁парламент	-10.6356
▁кладбище	-10.6363
y	-10.6364
▁эмоци	-10.6365
▁всадник	-10.6366
▁джунгл	-10.6366
▁дорого	-10.6367
▁имела	-10.6369
▁ванной	-10.6369
9	-10.6369
▁сосуд	-10.637
▁маленьк	-10.6371
▁воспринимают	-10.6371
▁предлага	-10.6372
▁32	-10.6372
▁начинают	-10.6372
ави	-10.6373
▁изготовление	-10.6376
▁василинк	-10.6376
▁провер	-10.6384
▁окончательно	-10.6387
▁конец	-10.6387
▁добавля	-10.6387
▁задни	-10.6388
▁вылез	-10.6395
▁сотрясал	-10.6395
▁получило	-10.6396
▁врачи	-10.6397
▁метр	-10.6397
▁хватает	-10.6402
▁палочк	-10.6402
пов	-10.6403
▁китайск	-10.6408
▁дают	-10.641
▁коня	-10.641
▁чернов	-10.6413
▁содержат	-10.6415
▁инструмента	-10.642
▁зарабатыва	-10.6421
▁платежи	-10.6423
▁робота	-10.6423
щей	-10.6423
▁нашли	-10.6423
▁забор	-10.6431
▁любопытство	-10.6434
▁юбка	-10.6438
▁пенсионер	-10.6438
▁лампочк	-10.6444
левой	-10.6448
▁цари	-10.6455
▁тариф	-10.6456
▁отдохну	-10.6456
▁подвязывает	-10.6456
▁протокол	-10.6456
▁ричард	-10.6456
▁пещер	-10.6456
▁загорел	-10.6457
▁дышал	-10.6457
▁пустот	-10.6458
спект	-10.6458
▁ненависть	-10.6465
▁пограничник	-10.6466
▁операции	-10.6466
▁брос	-10.6466
▁разговаривать	-10.6468
▁распространяет	-10.6468
жив	-10.6469
▁мате	-10.647
▁дверью	-10.6471
▁срывает	-10.6472
▁садит	-10.6473
▁толк	-10.6474
▁грун	-10.6475
▁прилага	-10.6478
▁отдых	-10.6481
▁украша	-10.6481
завтра	-10.6483
▁оправдал	-10.6486
▁десятк	-10.6487
▁дворец	-10.6489
▁вырез	-10.6491
▁рубашк	-10.6497
▁ост	-10.6497
▁имеюще	-10.6497
▁поиска	-10.6502
▁жук	-10.6504
ьный	-10.6506
емый	-10.6506
торого	-10.6506
▁оставал	-10.6512
▁кузов	-10.6514
▁крышк	-10.6517
▁соль	-10.6517
▁гос	-10.6517
▁сантехник	-10.6518
▁выпит	-10.6519
рский	-10.6523
▁кре	-10.6524
▁прокурор	-10.6524
сети	-10.6525
▁пат	-10.6526
▁поясни	-10.6527
ений	-10.6532
▁ствол	-10.6537
▁голове	-10.6538
▁убийц	-10.6538
▁ра	-10.6544
▁силиконов	-10.6548
▁воспаление	-10.6548
▁оправдывает	-10.6548
▁поменять	-10.6548
▁сюрприз	-10.6548
▁эпиляци	-10.6548
▁яндекс	-10.6548
▁вещь	-10.6548
▁чудовищ	-10.6548
▁интерьер	-10.6548
▁жанр	-10.6548
▁государства	-10.655
▁пушистик	-10.6551
▁процессор	-10.6551
▁гнал	-10.6553
▁поставляет	-10.6553
▁краски	-10.6562
▁заказчик	-10.6562
▁заведение	-10.6563
▁тро	-10.6568
▁45	-10.6569
▁крем	-10.6574
▁ранил	-10.6575
▁суда	-10.6577
▁разведчик	-10.6579
▁теплы	-10.6583
▁катал	-10.6585
▁степа	-10.6591
▁вороны	-10.6591
▁африк	-10.6593
▁листв	-10.6597
▁волну	-10.6599
▁китайски	-10.6602
▁живы	-10.6603
▁российск	-10.6605
▁жара	-10.6605
▁отделение	-10.6608
▁библиотек	-10.661
щих	-10.6611
▁мирно	-10.6612
▁радовал	-10.6614
▁мария	-10.6615
▁луг	-10.6616
▁вызыва	-10.6618
бур	-10.662
▁лимон	-10.6621
полное	-10.6622
▁корова	-10.6622
▁сделаю	-10.6624
▁подвиг	-10.6625
▁тонки	-10.6626
▁психолог	-10.6628
▁рисовал	-10.6633
▁грози	-10.6634
▁парке	-10.6637
▁заинтересовал	-10.6641
▁насекомых	-10.6641
▁выручит	-10.6641
▁исполнител	-10.6641
▁вышло	-10.6641
▁володьк	-10.6644
▁торгует	-10.6646
▁цех	-10.6647
знания	-10.6649
▁озер	-10.6653
ворот	-10.6653
▁мягкая	-10.6654
▁нрав	-10.6658
платить	-10.6659
▁катер	-10.666
▁спокойствие	-10.666
▁щек	-10.6662
глас	-10.6662
▁прожи	-10.6666
▁студи	-10.6668
▁американск	-10.6674
▁сири	-10.6677
▁перек	-10.6683
▁ста	-10.6689
▁настояще	-10.6701
ированн	-10.6702
80	-10.6704
▁картошку	-10.6705
сенок	-10.6707
▁иль	-10.671
▁сос	-10.6712
▁цирк	-10.6714
овсю	-10.6717
▁звезды	-10.6725
▁преступление	-10.6726
▁араб	-10.6727
▁команду	-10.6728
▁глубоко	-10.6729
▁ассортимент	-10.6734
▁фамилию	-10.6734
▁дей	-10.6737
тельный	-10.6737
▁общаюсь	-10.6739
▁кожи	-10.674
▁которым	-10.6742
▁ярко	-10.6743
▁взрыва	-10.6743
▁порадовал	-10.6745
▁обитаю	-10.6752
▁заменяет	-10.6753
▁мышка	-10.6755
▁рукава	-10.6761
▁открыть	-10.6764
▁погод	-10.6765
▁плачет	-10.6767
становят	-10.6768
▁линз	-10.6769
▁изучал	-10.6776
▁волки	-10.6776
▁пешко	-10.6777
▁обтягива	-10.6781
▁обмен	-10.6784
гин	-10.6796
нья	-10.6801
▁польза	-10.6807
▁сторон	-10.6811
▁штук	-10.6813
▁кормил	-10.6814
▁ссылк	-10.6815
▁зима	-10.6816
▁чек	-10.6818
▁собственны	-10.6819
▁авари	-10.6821
▁значительно	-10.6821
▁английск	-10.6825
▁погоду	-10.6826
▁захотел	-10.6829
▁расположил	-10.6829
▁пингвин	-10.6829
▁посоветовал	-10.6829
▁расставля	-10.6829
▁озадачил	-10.6829
▁бизнесмен	-10.6829
▁содержание	-10.6829
▁сурово	-10.683
▁исход	-10.6831
▁камня	-10.6832
▁выделяет	-10.6833
▁самостоятельно	-10.6834
ствует	-10.6835
▁придумыва	-10.6837
▁тройк	-10.6838
▁сотрудники	-10.6843
▁варенье	-10.6847
▁виталий	-10.6851
▁этап	-10.6854
▁дядя	-10.6856
▁вулкан	-10.6858
▁влад	-10.6858
▁спускает	-10.6868
жир	-10.6871
▁стола	-10.6873
ногами	-10.6875
право	-10.6877
падают	-10.6878
▁снизил	-10.6882
▁корне	-10.6885
▁жиль	-10.6885
водит	-10.6886
▁бери	-10.6889
мби	-10.6889
▁суббота	-10.6892
бивает	-10.6893
▁пиш	-10.6897
▁любящ	-10.6906
▁книжк	-10.6907
▁i	-10.6914
▁выдел	-10.6919
▁пожал	-10.6921
▁сомнения	-10.6924
▁тренировк	-10.6924
▁улучши	-10.6924
▁вина	-10.6924
▁имитиру	-10.6925
▁профессионал	-10.6925
▁масс	-10.6926
▁позвонил	-10.6927
▁обманул	-10.6927
▁нему	-10.6939
див	-10.694
▁фар	-10.694
▁преподаватель	-10.6942
▁пан	-10.6942
ьян	-10.6944
▁подвергает	-10.6944
▁принцесс	-10.6947
▁остан	-10.6947
▁спортивн	-10.6948
▁роза	-10.6953
▁саб	-10.696
▁удобный	-10.6965
▁бокс	-10.6968
▁сыграл	-10.6969
▁полный	-10.6973
▁ошибки	-10.6978
▁заря	-10.6983
▁морск	-10.6985
овцы	-10.7001
▁сумка	-10.7006
▁смеш	-10.7007
▁могл	-10.701
▁служба	-10.7012
▁дверцу	-10.7014
▁ольг	-10.7014
▁ангел	-10.7015
▁лидер	-10.7018
▁сумерк	-10.702
▁протянул	-10.702
▁ожидает	-10.7021
▁боли	-10.7021
▁неизменно	-10.7023
▁убрал	-10.7023
▁шарик	-10.7023
▁скот	-10.7026
▁повторяет	-10.7027
▁лесо	-10.7027
датчик	-10.7029
▁ниже	-10.703
▁тока	-10.703
▁эд	-10.7033
кер	-10.7034
▁замуж	-10.7035
▁случается	-10.7036
рок	-10.7038
▁фил	-10.704
▁кинул	-10.7044
▁доверяю	-10.7044
▁фрукты	-10.7046
▁откро	-10.7046
▁наполнило	-10.7049
▁b	-10.7056
▁уничтожа	-10.7056
шкин	-10.7057
▁героин	-10.7061
▁воздухе	-10.7061
нька	-10.7063
▁монастыр	-10.7065
▁слыш	-10.7066
льным	-10.7071
▁сэм	-10.7072
▁колес	-10.7073
▁занять	-10.7074
▁огромно	-10.7077
▁черта	-10.708
▁35	-10.7085
▁гроб	-10.7087
▁зале	-10.7087
бан	-10.7094
▁бега	-10.7095
▁развал	-10.7095
▁скал	-10.7103
слав	-10.7105
▁временно	-10.7112
▁заявк	-10.7112
▁тему	-10.7112
▁ошибка	-10.7116
▁пожалуй	-10.7117
▁гитлер	-10.7117
▁одновременно	-10.7117
▁ошеломленн	-10.7117
▁перемеща	-10.7117
▁трагеди	-10.7117
▁фашист	-10.7117
▁режим	-10.7117
▁обнял	-10.7118
▁целиком	-10.7119
▁заряжает	-10.7119
▁подставка	-10.712
▁выпускает	-10.712
▁бедн	-10.7121
▁хунт	-10.7124
ночи	-10.713
▁коридоре	-10.713
▁запеканку	-10.713
▁лопат	-10.7132
есь	-10.7132
▁бога	-10.7133
▁указывает	-10.7134
ометр	-10.7137
▁костю	-10.714
▁гул	-10.7144
▁фур	-10.7145
▁направля	-10.715
▁листал	-10.7151
▁качал	-10.7153
▁мягки	-10.7154
▁вынул	-10.7156
▁стельк	-10.7158
▁оглядывает	-10.716
▁батарейка	-10.717
▁сбил	-10.7171
▁стрелка	-10.7174
▁кост	-10.7183
уса	-10.7186
▁немецки	-10.7186
▁200	-10.7192
▁великолепно	-10.7199
▁казан	-10.7199
▁лож	-10.7207
▁вьетнам	-10.7212
▁управление	-10.7212
▁кадр	-10.7213
▁компонент	-10.7215
▁порождают	-10.7215
▁пребывание	-10.7215
▁отыскал	-10.7215
▁разобрал	-10.7215
▁подростк	-10.7216
▁остатки	-10.7216
▁пересчитал	-10.7216
▁поражение	-10.7217
▁александровна	-10.7217
▁соли	-10.7217
ируют	-10.7224
▁четверк	-10.7225
▁оценивает	-10.7226
▁погибл	-10.7231
▁пронзил	-10.7232
▁стоя	-10.7232
er	-10.7232
▁съемны	-10.7233
жка	-10.7233
▁перевод	-10.7241
▁гугл	-10.7242
▁темно	-10.7253
▁металлическ	-10.7253
▁слой	-10.7254
▁ягоды	-10.7256
▁дрож	-10.7258
▁корнели	-10.7259
▁красн	-10.7264
▁лиди	-10.7265
арка	-10.7268
ительный	-10.7272
▁тени	-10.7276
▁трещин	-10.7277
торая	-10.7278
▁псих	-10.7279
▁пойма	-10.7279
▁отказа	-10.7281
▁длина	-10.729
▁сократ	-10.7292
онер	-10.7292
▁которо	-10.7294
▁раза	-10.7305
▁дверц	-10.7308
▁чуд	-10.731
▁горк	-10.7313
▁противоположн	-10.7314
▁развязывает	-10.7314
▁трахает	-10.7314
▁барсук	-10.7314
▁парашют	-10.7314
▁монитор	-10.7314
▁пальто	-10.7314
▁стрелять	-10.7314
▁сварщик	-10.7314
▁затаил	-10.7315
▁кольца	-10.7315
▁последняя	-10.7316
олов	-10.7317
▁люк	-10.7318
▁летал	-10.7318
▁понятно	-10.732
▁съеда	-10.7324
▁рыцарь	-10.7326
▁духов	-10.7331
▁продолжают	-10.7336
нок	-10.7338
▁иметь	-10.734
▁стиль	-10.7343
▁испытыва	-10.7344
▁причине	-10.7344
чишь	-10.7344
▁волнует	-10.7345
▁скажешь	-10.7348
овер	-10.7351
нную	-10.7353
▁пах	-10.7355
▁лез	-10.7355
▁рай	-10.736
купает	-10.7361
лоп	-10.7365
▁закрыла	-10.7368
▁молоком	-10.7369
▁провода	-10.7373
▁ожидал	-10.7373
▁стан	-10.7376
щина	-10.7376
▁уменьша	-10.7388
нта	-10.739
▁преимуществ	-10.7392
английски	-10.7394
янка	-10.7397
▁домик	-10.7397
▁помещении	-10.7398
▁шага	-10.7398
▁замуже	-10.7398
▁дополнительно	-10.7398
▁современны	-10.74
▁крылья	-10.7401
▁лесом	-10.7404
десят	-10.7404
чес	-10.7408
▁зимни	-10.7412
▁мешает	-10.7414
▁свадьб	-10.7414
▁торжествующ	-10.7414
▁коммунальны	-10.7414
▁крыльц	-10.7414
▁идиот	-10.7414
▁существование	-10.7415
▁леха	-10.7416
▁гостя	-10.7416
▁пауз	-10.7417
▁умные	-10.7419
ченко	-10.7421
▁джим	-10.7421
▁гитаре	-10.7423
▁речи	-10.7425
▁пролетел	-10.7431
▁установлен	-10.7432
▁моряк	-10.7436
чина	-10.7437
▁сопровождала	-10.7437
▁контролирует	-10.7439
▁мыло	-10.744
▁характеристик	-10.7441
▁товары	-10.7444
▁горело	-10.7447
▁секс	-10.7447
▁режет	-10.7448
▁путешествие	-10.745
▁превыша	-10.7457
чан	-10.7458
▁уважение	-10.7458
бок	-10.7459
▁марсе	-10.7459
▁наука	-10.7459
▁появление	-10.7463
▁стрекоз	-10.7468
▁удача	-10.747
▁рыбой	-10.7471
▁получал	-10.7471
▁литература	-10.7474
▁италии	-10.7475
▁существенно	-10.7476
▁судь	-10.7479
▁цветами	-10.748
▁обл	-10.748
▁паром	-10.7482
▁опор	-10.7485
лилось	-10.7489
носят	-10.7491
▁ломает	-10.7492
▁братья	-10.7495
понимающ	-10.7499
телем	-10.7499
▁стандарт	-10.7504
▁шкур	-10.7506
▁бра	-10.7508
▁кров	-10.7511
▁расширяется	-10.7511
огуз	-10.7513
▁вглядыва	-10.7515
▁грохот	-10.7515
▁конфликт	-10.7515
▁неуверенно	-10.7515
▁подорожал	-10.7515
▁коллектив	-10.7515
▁тренажер	-10.7515
▁космонавт	-10.7515
▁алён	-10.7515
▁подошл	-10.7515
▁догнал	-10.7515
▁эконом	-10.7516
переди	-10.7516
▁аплодисмент	-10.752
▁стопк	-10.7525
▁подарит	-10.7529
▁гриппа	-10.7529
эп	-10.7529
держать	-10.7531
▁хозяйство	-10.7533
▁полз	-10.7537
▁работой	-10.7537
▁беспокоит	-10.7539
▁царя	-10.7539
▁яблока	-10.7542
▁средне	-10.7544
▁королева	-10.7547
▁лип	-10.755
▁простой	-10.7552
▁потрясло	-10.7552
▁обладал	-10.7553
▁возвращаю	-10.7553
▁заполнили	-10.7555
▁столице	-10.7556
▁самолета	-10.7557
▁прибежал	-10.7558
▁языка	-10.7562
анное	-10.7566
▁котел	-10.7567
▁покупателя	-10.7567
▁хлеба	-10.7568
▁практика	-10.7572
▁уют	-10.7582
▁оригинальн	-10.7586
▁укладк	-10.7588
▁тяжелые	-10.7591
▁вытягива	-10.7595
▁правило	-10.7596
пели	-10.7597
▁тускло	-10.7597
▁подход	-10.76
▁безразлич	-10.7602
▁обитае	-10.7603
▁ксени	-10.7603
крытия	-10.7606
▁окутал	-10.7607
▁дополнит	-10.7611
▁лингвист	-10.7617
▁елизавета	-10.7617
▁компаньон	-10.7617
▁коттедж	-10.7617
▁опустел	-10.7617
▁пилюлькин	-10.7617
▁рецепт	-10.7617
▁тьюринга	-10.7617
▁загибал	-10.7617
▁колпак	-10.7617
▁поддерживают	-10.7618
▁водопад	-10.7618
▁предложил	-10.7618
▁плавает	-10.7618
▁яичниц	-10.7619
▁подсчитывает	-10.762
▁шлем	-10.7621
▁промышленн	-10.7623
шивает	-10.7624
▁истин	-10.7625
▁читаешь	-10.7626
▁фило	-10.7627
▁обслуживани	-10.7628
▁исчезло	-10.7632
ваться	-10.7634
▁дизайнер	-10.7635
▁субботу	-10.7636
▁притягивает	-10.7636
▁каникулы	-10.7637
стон	-10.7649
▁машинист	-10.7652
▁закурил	-10.7654
▁сочи	-10.7656
лил	-10.7658
▁подл	-10.7659
▁ленин	-10.7665
▁компьютеры	-10.7667
▁наход	-10.7668
▁шок	-10.7681
▁низк	-10.7681
▁вынес	-10.7681
крепление	-10.7683
течет	-10.7684
▁размахивал	-10.7686
▁собачка	-10.7687
▁вставляет	-10.7691
▁выда	-10.7692
▁проблему	-10.7692
▁ги	-10.7694
▁веревка	-10.7697
▁смотрело	-10.7702
▁взор	-10.7705
▁отмечается	-10.7709
▁технология	-10.771
▁полицейск	-10.7713
▁измен	-10.7717
▁лестнице	-10.7719
▁действий	-10.772
▁предусматривает	-10.772
▁замыкал	-10.772
глухо	-10.772
▁думать	-10.772
▁бегемот	-10.772
▁сдавил	-10.772
▁чая	-10.7721
▁дневник	-10.7721
▁крот	-10.7722
▁границ	-10.7722
▁расследование	-10.7723
▁большевик	-10.7725
▁израиль	-10.7726
▁фактор	-10.7726
▁жизнью	-10.7733
▁ранен	-10.7735
▁отсутстви	-10.7745
▁убийства	-10.7746
▁марш	-10.7748
▁выпал	-10.7749
▁ушл	-10.7749
▁помогаю	-10.775
▁покупал	-10.7754
▁серия	-10.7761
▁гаранти	-10.7763
▁суши	-10.7763
▁аз	-10.7767
росло	-10.7768
▁мамы	-10.7769
енного	-10.777
▁хе	-10.7771
чий	-10.7776
▁разбираю	-10.7781
▁мул	-10.7784
▁лиц	-10.7785
▁облива	-10.7785
▁борт	-10.7785
▁жела	-10.7788
▁слона	-10.7792
тельство	-10.7798
▁уверен	-10.7801
▁зеркало	-10.7801
▁димк	-10.7805
▁средства	-10.7806
стал	-10.7808
▁сложно	-10.7813
▁кандидат	-10.7817
альные	-10.7818
▁пицца	-10.7819
▁чистил	-10.7819
▁рейс	-10.7821
благополучно	-10.7824
▁волейбол	-10.7824
▁захлопал	-10.7824
▁предотвратит	-10.7824
▁оркестр	-10.7824
▁стучит	-10.7824
▁давление	-10.7824
▁лебед	-10.7824
▁балкон	-10.7826
▁узор	-10.7826
▁александрович	-10.7826
▁сложил	-10.7828
▁представил	-10.7828
▁новичкам	-10.7828
▁бомб	-10.783
▁подружк	-10.7832
▁насили	-10.7834
▁ограничивает	-10.7836
▁потряса	-10.7836
▁решения	-10.7839
▁тимми	-10.7842
▁длинные	-10.7843
▁бабочки	-10.7844
▁слюн	-10.7846
▁включила	-10.7849
▁заревел	-10.785
▁забот	-10.7851
юще	-10.7851
▁виталик	-10.7852
▁полетел	-10.7853
падает	-10.7855
▁груб	-10.7856
▁жу	-10.7857
▁стекла	-10.7859
▁барон	-10.786
▁запуск	-10.7863
ипит	-10.7863
▁евгения	-10.7865
▁перестал	-10.7867
▁старш	-10.7869
▁марин	-10.7869
суд	-10.7873
▁сочиня	-10.7876
▁цветов	-10.7876
▁принимаю	-10.7881
эль	-10.7883
▁этому	-10.7887
▁жидк	-10.7887
v	-10.7891
▁парол	-10.7894
▁музыки	-10.7896
▁трубы	-10.7898
▁сопровождал	-10.7905
даль	-10.7909
▁искусственно	-10.7921
▁некоторых	-10.7924
▁багаж	-10.7925
прям	-10.7928
▁следующе	-10.7929
▁комиссар	-10.793
▁кукуруз	-10.793
▁пешеход	-10.793
▁площади	-10.793
▁символизирует	-10.793
▁эксплуатировал	-10.793
▁катастроф	-10.793
▁знание	-10.793
▁подкрал	-10.793
▁расстроил	-10.793
▁англичан	-10.793
▁болею	-10.793
▁механик	-10.793
▁полицейские	-10.7932
▁оттенок	-10.7932
▁пульт	-10.7932
▁уснул	-10.7933
▁развитие	-10.7933
▁лыжах	-10.7934
▁мелкие	-10.7934
▁тупо	-10.7935
▁бунин	-10.7936
▁рысь	-10.7937
▁температур	-10.7939
▁водка	-10.7939
▁невест	-10.794
▁борода	-10.794
▁собирают	-10.794
▁отдавал	-10.7942
▁спрашиваешь	-10.7944
▁сено	-10.7944
▁поддержал	-10.7946
▁маги	-10.7947
обладание	-10.7948
живает	-10.7951
▁выигрышн	-10.7952
▁энерги	-10.7954
▁склонен	-10.7957
▁байк	-10.7964
▁камеры	-10.7969
▁неподвижно	-10.7981
▁рыбалк	-10.7984
▁поезда	-10.7985
▁удалил	-10.7988
леж	-10.7993
▁ответственн	-10.7994
▁начать	-10.7994
точку	-10.7995
▁тяг	-10.7998
▁миш	-10.8
▁вырабатывает	-10.8002
▁накладка	-10.8003
эм	-10.8005
▁певца	-10.8008
▁степ	-10.8009
▁техника	-10.8009
▁виновато	-10.8011
чок	-10.8012
▁звезда	-10.8014
▁парнишк	-10.8024
▁потянул	-10.8027
ствие	-10.8029
▁тайны	-10.8032
▁шанс	-10.8032
▁оборон	-10.8032
▁номера	-10.8036
▁позавчера	-10.8036
▁задержал	-10.8036
▁захлопнул	-10.8036
▁самочувствие	-10.8036
▁даниил	-10.8036
▁дополня	-10.8036
▁визит	-10.8037
▁наушник	-10.8037
▁бренд	-10.8038
▁евро	-10.8039
▁гюр	-10.8041
▁примани	-10.8042
▁газа	-10.8046
далось	-10.8053
▁свежесть	-10.8053
ялся	-10.8054
▁выбрала	-10.8055
▁рита	-10.8058
▁местн	-10.8061
шее	-10.8062
▁времен	-10.8064
▁короб	-10.8065
▁пауков	-10.8066
▁садик	-10.8068
▁покрывал	-10.8069
▁уверенно	-10.8072
ложил	-10.8078
▁доски	-10.8078
▁лисы	-10.808
▁поднимается	-10.808
▁посуду	-10.8081
▁использует	-10.8081
▁выплат	-10.8082
▁нахмурился	-10.8086
▁академик	-10.8086
гнул	-10.809
▁буль	-10.8091
▁краю	-10.8094
▁шелков	-10.8094
▁никуд	-10.8096
▁боевики	-10.8096
▁образова	-10.8097
▁закончилась	-10.8101
▁павл	-10.8105
▁пита	-10.8106
▁посыпал	-10.8107
▁примен	-10.8108
▁юра	-10.8111
▁основны	-10.8114
▁проверка	-10.8116
▁отдает	-10.8119
анна	-10.8121
нные	-10.8121
есть	-10.8121
▁церковн	-10.8126
ование	-10.8133
▁случа	-10.8136
000	-10.8136
растает	-10.8139
▁порядке	-10.8141
f	-10.8143
▁амортизаци	-10.8144
▁единственны	-10.8144
▁зрители	-10.8144
▁конструктор	-10.8144
▁поступок	-10.8144
▁пугает	-10.8144
▁упрощает	-10.8144
▁спортзал	-10.8144
помянул	-10.8144
▁файл	-10.8144
▁мрак	-10.8144
▁орех	-10.8144
▁самокат	-10.8144
▁рассказать	-10.8145
▁посев	-10.8145
▁мистер	-10.8145
▁исключени	-10.8145
▁ресниц	-10.8145
▁мучил	-10.8145
▁клин	-10.8147
▁складывать	-10.815
▁квадрат	-10.8152
▁кнопку	-10.8153
▁булк	-10.8156
▁бориса	-10.816
▁полез	-10.816
▁спец	-10.8163
▁судна	-10.8169
▁кукла	-10.8177
▁времена	-10.8177
▁технически	-10.8178
▁медуз	-10.8179
▁оригинал	-10.8181
▁двум	-10.8184
▁важны	-10.8184
▁нагрева	-10.8186
▁водила	-10.8188
▁открывают	-10.819
▁послушал	-10.8193
▁стабильн	-10.8196
▁заказы	-10.82
▁неожиданны	-10.8202
▁треск	-10.8202
изации	-10.8213
▁куч	-10.8213
▁сказк	-10.8215
ющим	-10.822
▁посещаю	-10.822
▁старше	-10.8223
▁глупы	-10.8224
▁пленка	-10.8226
▁боков	-10.8231
рач	-10.8232
▁встречают	-10.8233
▁умр	-10.8239
▁подели	-10.8244
▁доллар	-10.8248
▁настройк	-10.8249
▁осталась	-10.8249
▁курил	-10.8251
▁боцман	-10.8252
▁зашагал	-10.8252
▁вампир	-10.8252
▁припекало	-10.8252
▁комментари	-10.8253
▁острова	-10.8253
▁бензин	-10.8253
▁обретает	-10.8253
▁свиса	-10.8255
▁штор	-10.8256
▁симпатичны	-10.8257
▁армии	-10.8264
▁баб	-10.8265
▁языков	-10.8266
▁тянул	-10.8267
▁труб	-10.8273
▁лицом	-10.8275
ечка	-10.8281
▁писать	-10.8282
▁реп	-10.8282
▁другу	-10.8285
▁наполнила	-10.8287
▁солнышко	-10.8288
очный	-10.8289
▁морс	-10.8289
▁свод	-10.8291
▁пьян	-10.8296
▁фух	-10.8301
▁герои	-10.8301
▁больш	-10.8302
▁программировани	-10.8303
▁тащил	-10.8303
▁восток	-10.8303
▁гражданин	-10.8306
▁натуральны	-10.8307
▁играющи	-10.8311
▁38	-10.8314
▁рва	-10.8316
▁яшка	-10.8317
▁наряд	-10.8317
▁заботлив	-10.8318
▁приду	-10.8318
▁америка	-10.8328
▁получа	-10.8328
▁специальн	-10.833
▁мягкий	-10.8331
▁залп	-10.8332
▁пирог	-10.8332
айс	-10.8334
▁рф	-10.8338
▁паук	-10.8341
кивал	-10.8341
▁ху	-10.8342
пас	-10.8344
▁русском	-10.8348
▁драпир	-10.835
▁объяснил	-10.8352
▁пробк	-10.8353
живаешь	-10.8353
▁проявляется	-10.8354
▁отправля	-10.8359
▁отделк	-10.8361
▁недовольно	-10.8362
▁неимоверн	-10.8362
▁обозначают	-10.8362
▁промежуток	-10.8362
▁револьвер	-10.8362
▁слесар	-10.8362
▁змеи	-10.8362
▁больницу	-10.8363
▁задания	-10.8363
▁оператор	-10.8363
▁недалеко	-10.8364
▁параметр	-10.8364
тельная	-10.8364
▁поте	-10.8364
▁демон	-10.8366
▁поселк	-10.8366
гель	-10.8369
▁покупк	-10.8369
▁союз	-10.8369
▁столовой	-10.8369
анная	-10.8371
▁абсолютно	-10.8372
▁приятель	-10.8372
▁сыщик	-10.8374
▁изменить	-10.8375
▁график	-10.8376
очку	-10.8376
▁материала	-10.8378
▁издатель	-10.8382
казывать	-10.8382
▁загадк	-10.8382
культур	-10.8385
▁грозно	-10.8389
▁бык	-10.8392
сюда	-10.8394
▁прибыль	-10.8399
▁звер	-10.84
щики	-10.8402
▁плечи	-10.8402
▁поняли	-10.8404
▁посетител	-10.8405
▁заливал	-10.8406
▁буквы	-10.8407
▁исторически	-10.8412
▁следующим	-10.8412
ывают	-10.8431
▁сар	-10.8431
▁имена	-10.8433
▁гулял	-10.8437
▁спинк	-10.8437
▁медицинск	-10.8438
▁заслужива	-10.8438
весил	-10.844
▁прожива	-10.844
▁бегу	-10.844
рка	-10.8446
ющей	-10.8446
▁принцесса	-10.8446
кивает	-10.8448
▁паника	-10.8451
▁металлические	-10.8462
татор	-10.8464
▁объясни	-10.8468
▁воспитыва	-10.8471
▁скуча	-10.8471
w	-10.8473
▁алгоритм	-10.8473
▁каменщик	-10.8473
▁мальчишек	-10.8473
▁обсуждени	-10.8473
▁одержал	-10.8473
▁редактор	-10.8473
▁старательно	-10.8473
▁шлюз	-10.8473
▁преодолевают	-10.8473
▁построил	-10.8474
▁флот	-10.8474
▁жора	-10.8474
▁бинокл	-10.8474
▁умнее	-10.8474
▁влез	-10.8474
▁подарил	-10.8474
▁нефть	-10.8477
▁достоинства	-10.8479
▁сеть	-10.8481
▁победитель	-10.8482
▁пир	-10.8484
▁42	-10.8484
рут	-10.8485
▁пропал	-10.8485
▁лучши	-10.8488
▁закивал	-10.8493
▁достигает	-10.8495
▁залила	-10.8495
▁топор	-10.8497
▁поверхности	-10.8497
▁пластиковы	-10.8499
ованием	-10.8501
▁пород	-10.8504
▁таял	-10.8508
▁стрельба	-10.8511
▁питание	-10.8512
ёт	-10.8513
▁резервны	-10.8514
▁чатботов	-10.8518
▁служб	-10.8519
▁вечеринк	-10.8519
дняя	-10.8523
▁чайник	-10.8527
▁парковк	-10.8531
▁лу	-10.8534
▁круп	-10.8535
▁получени	-10.8535
нной	-10.8539
▁подвал	-10.8541
▁мечты	-10.8541
▁голода	-10.8545
▁создание	-10.8546
▁башни	-10.855
▁танцу	-10.8551
льц	-10.8554
▁греб	-10.8554
▁хомяк	-10.8554
▁технику	-10.8559
▁побежала	-10.8559
▁тонн	-10.8562
▁сереж	-10.8562
00	-10.8563
▁птен	-10.8567
▁черепаха	-10.8569
▁фор	-10.8569
▁36	-10.857
▁эксперт	-10.8577
▁встреч	-10.8584
▁традици	-10.8585
▁индикатор	-10.8586
▁композитор	-10.8586
▁кустарник	-10.8586
▁наверняка	-10.8586
▁рекомендаци	-10.8586
▁рухнул	-10.8586
▁скамейке	-10.8586
▁экземпляр	-10.8586
▁гнезд	-10.8586
▁змея	-10.8586
▁стояночны	-10.8586
▁полюбил	-10.8586
▁закусил	-10.8586
▁потупил	-10.8586
▁библи	-10.8586
▁отравил	-10.8586
▁убиваю	-10.8586
▁умереть	-10.8587
▁отказался	-10.8591
▁проб	-10.8592
▁шур	-10.8593
шествие	-10.8597
▁жестк	-10.86
▁родителям	-10.8601
елка	-10.8608
▁ласка	-10.861
▁мастерская	-10.8613
▁шнур	-10.8616
▁покупатель	-10.8616
▁необходим	-10.862
▁шотландские	-10.862
сот	-10.862
▁кад	-10.8621
▁био	-10.8624
▁толстый	-10.8625
▁выросла	-10.8625
▁обожгл	-10.8626
▁закрыва	-10.8626
▁линии	-10.8627
▁пронес	-10.8632
онос	-10.8636
▁ана	-10.8639
▁арбузы	-10.8642
▁замеча	-10.8649
▁пацан	-10.8649
шку	-10.865
▁хлоп	-10.8662
▁искусственны	-10.8662
▁разбивает	-10.8667
тык	-10.8669
▁пусты	-10.8671
▁проводят	-10.8672
▁подач	-10.8673
▁огранич	-10.8676
▁1,	-10.8676
асси	-10.868
▁отвечаю	-10.8681
▁сед	-10.8682
▁фарт	-10.8685
ключается	-10.8687
▁курит	-10.8692
▁искренн	-10.8692
ницы	-10.8694
▁необычны	-10.8695
▁ношу	-10.8698
▁Как	-10.8699
▁сдержал	-10.8699
▁минимум	-10.8699
▁ехидн	-10.8699
▁середин	-10.8699
▁импери	-10.8699
▁стремительно	-10.8699
▁халат	-10.87
▁сердца	-10.87
▁выскочил	-10.8701
▁ждать	-10.8701
▁бригадир	-10.8702
▁солом	-10.8702
дедушка	-10.8703
▁медицин	-10.8703
▁статус	-10.8705
▁откидывает	-10.8706
▁мас	-10.8706
▁самовар	-10.8707
▁рон	-10.8707
▁венер	-10.8707
▁гранат	-10.8709
ань	-10.871
▁реагирует	-10.8712
▁ученые	-10.8714
▁встретила	-10.8719
▁лазерн	-10.872
▁птич	-10.8722
ольд	-10.8725
▁карик	-10.8727
коле	-10.8727
▁проходят	-10.8727
▁потер	-10.8728
▁счетчик	-10.8729
ике	-10.8729
le	-10.8729
▁одежды	-10.873
▁решал	-10.8733
▁хирург	-10.8734
▁неумолимо	-10.8736
▁отвечал	-10.8737
▁взрослы	-10.8741
▁стрел	-10.8742
▁беседу	-10.8743
петербург	-10.8748
▁выборы	-10.8749
ировка	-10.8749
▁составляют	-10.8749
▁тревожил	-10.8751
двиг	-10.8752
емся	-10.8754
▁другим	-10.8758
▁встречу	-10.876
ступил	-10.8767
▁крепит	-10.8768
печка	-10.8774
▁транс	-10.8777
▁чудесны	-10.8781
▁гур	-10.8782
▁банка	-10.8783
▁деревня	-10.8789
▁передач	-10.8789
▁стена	-10.8795
▁поднялся	-10.8798
▁политика	-10.8799
▁партизан	-10.88
▁наступает	-10.88
▁дегенерат	-10.8801
▁наблюдает	-10.8802
приложение	-10.8808
▁исследовател	-10.8813
▁календар	-10.8814
▁выплачивает	-10.8814
▁ощутил	-10.8814
▁предчувствие	-10.8814
▁крышу	-10.8814
▁заслонил	-10.8814
▁протест	-10.8814
▁ураган	-10.8814
▁ветеринар	-10.8814
▁липучк	-10.8815
▁ополчение	-10.8815
дыба	-10.8816
▁дилер	-10.8817
▁гек	-10.8817
▁санч	-10.8817
▁крепость	-10.8818
▁принтер	-10.8819
▁принцип	-10.882
▁шагнул	-10.882
▁врачу	-10.8821
▁доверя	-10.8823
▁шотландски	-10.8824
▁должны	-10.8824
▁едва	-10.8826
▁блог	-10.8827
▁оптик	-10.8829
▁моисе	-10.8832
▁палат	-10.8835
▁равен	-10.8837
▁казак	-10.8837
▁домашне	-10.8842
▁накрыл	-10.8845
▁очеред	-10.8848
▁старушка	-10.8849
▁испуг	-10.8851
чаты	-10.8852
▁лад	-10.886
▁захват	-10.8861
▁честь	-10.8865
▁среда	-10.8866
▁волны	-10.8867
▁пуля	-10.8867
▁стакана	-10.8868
▁петля	-10.8869
▁сестры	-10.8872
▁алкоголь	-10.8875
▁майкл	-10.8876
▁полным	-10.8882
▁станов	-10.8883
▁математику	-10.8883
▁ведьм	-10.8884
▁мясом	-10.8887
▁стражник	-10.8893
▁поправил	-10.8894
▁продолжительно	-10.8895
▁метал	-10.8896
▁рож	-10.89
▁груд	-10.89
пала	-10.8906
сним	-10.8908
▁преподавател	-10.8908
▁елочк	-10.8909
▁велики	-10.891
офи	-10.8912
▁пробил	-10.8913
▁жило	-10.8915
▁музыкальн	-10.8915
мертво	-10.8916
▁арест	-10.8916
▁фонарик	-10.8917
ящий	-10.8917
▁улицу	-10.8918
треб	-10.8918
▁математика	-10.8926
▁австри	-10.893
▁бережно	-10.893
▁воробьев	-10.893
▁масштаб	-10.893
▁нескольки	-10.893
▁распорол	-10.893
▁тротуар	-10.893
▁московски	-10.8931
▁коллекциониру	-10.8931
▁раковин	-10.8931
▁яйцо	-10.8931
▁пончик	-10.8931
▁портрет	-10.8931
▁познакомиться	-10.8932
▁утратил	-10.8932
▁арсений	-10.8932
▁веру	-10.8932
▁швец	-10.8933
▁танец	-10.8933
▁неспешно	-10.8934
▁огня	-10.8934
▁супруг	-10.8935
▁послушно	-10.8935
▁пахнут	-10.8936
▁неправильно	-10.8936
▁отпечатк	-10.8936
▁жажд	-10.8937
▁рубля	-10.8938
▁руче	-10.8941
▁прохожих	-10.8943
ходят	-10.8947
зан	-10.8948
▁князь	-10.8948
▁краска	-10.8949
▁икон	-10.895
▁германи	-10.8954
▁ухо	-10.8957
▁ежик	-10.8958
▁реке	-10.8959
▁яхт	-10.896
▁строил	-10.896
▁дет	-10.8962
▁обжигал	-10.8962
▁лежа	-10.8968
▁компьютерным	-10.897
ших	-10.897
▁осла	-10.8971
▁щит	-10.8974
▁заняла	-10.8974
▁винни	-10.8977
▁пройд	-10.8977
тащил	-10.8978
▁бесплатн	-10.8982
▁энергии	-10.8983
вик	-10.8984
▁отмен	-10.8985
▁обманыва	-10.8993
▁голуби	-10.8996
▁светом	-10.8999
▁монета	-10.9
▁комп	-10.9008
▁смен	-10.9008
▁прививки	-10.9011
▁умира	-10.9019
▁раб	-10.9022
▁испытываю	-10.9022
▁совершен	-10.9023
▁полезн	-10.9027
▁лесник	-10.9029
▁возвращал	-10.9043
▁сует	-10.9043
▁забавлял	-10.9048
▁пострадал	-10.9048
▁похорон	-10.9048
▁симптом	-10.9048
▁окрылил	-10.9048
▁штаб	-10.9048
▁посещени	-10.9048
▁плащ	-10.9049
▁разумеется	-10.9049
▁однажды	-10.9049
▁увенчал	-10.9049
▁обрабатывает	-10.905
▁утешил	-10.905
▁высоты	-10.9051
▁открытк	-10.9052
▁братьев	-10.9052
▁пресс	-10.9054
▁немнож	-10.9054
▁сашу	-10.9055
▁джонни	-10.9056
▁48	-10.9056
▁умная	-10.9056
▁отрасль	-10.9057
▁спасает	-10.9057
▁кабан	-10.9058
▁отказыва	-10.9062
▁находк	-10.9068
▁человеческ	-10.9072
▁негр	-10.9075
длительность	-10.9075
досад	-10.9077
▁опытные	-10.9081
▁классно	-10.9082
▁языки	-10.9083
▁активирует	-10.9086
▁спускал	-10.9088
▁вооруженны	-10.9088
техническ	-10.909
▁вислоухи	-10.9091
▁санкт	-10.9092
ированны	-10.9099
▁набрал	-10.9099
ька	-10.9103
▁потребовал	-10.9104
▁выключился	-10.9113
асывает	-10.9114
▁незначительны	-10.9116
▁быстр	-10.9117
чем	-10.9117
▁поедет	-10.9119
▁хан	-10.912
общаться	-10.9121
вшей	-10.9121
летает	-10.9123
▁нян	-10.9125
▁бактери	-10.9137
▁топит	-10.9141
▁грыз	-10.9141
дергивает	-10.9143
яга	-10.9144
▁квартал	-10.9146
летел	-10.9148
▁подает	-10.9148
▁37	-10.9148
▁джу	-10.9149
▁немец	-10.915
▁ковр	-10.9155
▁карманы	-10.9156
▁японски	-10.9159
▁уйти	-10.9161
▁непри	-10.9165
▁кул	-10.9167
▁посреди	-10.9167
▁вождь	-10.9167
▁компенсирует	-10.9167
▁миллиард	-10.9167
▁обрабатывают	-10.9167
▁окажет	-10.9167
▁пациент	-10.9167
▁совещание	-10.9167
▁удержал	-10.9167
▁рассольник	-10.9167
▁ананас	-10.9167
▁инвестор	-10.9167
▁муравьев	-10.9167
▁молитв	-10.9167
▁сияние	-10.9168
▁потира	-10.9168
▁похвал	-10.9168
▁внучк	-10.9168
▁омлет	-10.9169
▁сглажива	-10.9169
▁привык	-10.9169
▁щука	-10.9169
▁занавес	-10.917
▁расширяет	-10.9171
▁банки	-10.9172
▁оделся	-10.9172
▁террорист	-10.9175
▁солено	-10.9176
▁укол	-10.9176
▁кофточк	-10.9177
▁покорно	-10.9178
▁ослик	-10.9178
▁собираю	-10.9179
▁внушае	-10.918
▁человеку	-10.9182
▁погон	-10.9182
▁дыб	-10.9185
▁зверя	-10.9186
▁боб	-10.9188
▁велосипедист	-10.9188
▁куз	-10.9189
толок	-10.9193
щим	-10.9195
▁юбк	-10.9196
▁комаров	-10.9197
▁пригодит	-10.9199
▁задник	-10.92
▁проявляет	-10.92
▁зубами	-10.9202
▁кирил	-10.9204
трубой	-10.921
▁пива	-10.9212
▁ящериц	-10.9214
▁внутренний	-10.9215
▁слоны	-10.9216
▁отряда	-10.9217
▁валери	-10.9225
▁приступ	-10.9226
▁вытер	-10.9229
изы	-10.9229
▁черепахи	-10.923
▁сосиски	-10.923
k	-10.9234
▁путешествия	-10.9236
▁определяют	-10.9238
▁представление	-10.9241
▁рукав	-10.9242
▁сплав	-10.9243
поль	-10.9251
жин	-10.9254
▁кузнечик	-10.9256
▁угроз	-10.9263
▁жене	-10.9265
▁пищи	-10.9267
▁маргарита	-10.9275
ступает	-10.9276
дневн	-10.9278
▁зажигает	-10.9278
▁подушк	-10.928
▁долин	-10.9283
▁освещен	-10.9283
▁франци	-10.9285
▁посеща	-10.9286
▁аквапарк	-10.9288
▁заскрипел	-10.9288
▁платформ	-10.9288
▁управлять	-10.9288
▁египт	-10.9288
▁рассекал	-10.9288
▁выезжа	-10.9288
▁крыше	-10.9288
▁пронизыва	-10.9288
▁пятницу	-10.9288
▁оград	-10.9288
▁табак	-10.9288
▁владимировна	-10.9289
▁богдан	-10.9289
▁мозга	-10.929
▁верхняя	-10.929
▁хваста	-10.9291
▁каталог	-10.9291
▁ввел	-10.9293
долларов	-10.9293
▁массаж	-10.9295
▁сиял	-10.9297
▁парочк	-10.9298
▁блестящ	-10.9298
▁доеда	-10.93
▁зайц	-10.9302
▁обучения	-10.9304
▁пустел	-10.9311
▁глот	-10.9315
▁французск	-10.9315
▁мет	-10.9317
изаци	-10.9317
нку	-10.9318
▁просьб	-10.9318
▁полли	-10.9322
▁разгадыва	-10.9324
▁предприятия	-10.9328
▁отношение	-10.9329
незнакомец	-10.933
▁бабушки	-10.933
ология	-10.9332
лекс	-10.9333
▁куртка	-10.9335
▁тен	-10.9335
▁котлет	-10.9335
ющего	-10.9337
▁пытаешь	-10.934
▁среду	-10.9344
▁беспоко	-10.9348
печат	-10.9349
▁называл	-10.935
▁теори	-10.9351
▁вредны	-10.9352
▁полк	-10.9355
▁производства	-10.9356
▁свободы	-10.9357
▁петербург	-10.9357
▁дост	-10.9368
▁прошу	-10.9369
▁свеже	-10.9372
▁посетит	-10.9373
▁оле	-10.9374
▁плачу	-10.9374
▁капусту	-10.9378
▁выдержи	-10.938
▁водит	-10.9383
▁кислот	-10.9385
▁залив	-10.9387
▁выраст	-10.9391
▁крупн	-10.9391
▁общем	-10.9393
▁врача	-10.9394
▁козы	-10.9396
▁холодил	-10.9396
▁объединя	-10.9398
▁разно	-10.9399
▁организации	-10.9406
▁ответила	-10.9408
штейн	-10.941
▁No	-10.941
▁екатеринбург	-10.941
▁киборг	-10.941
▁конъюнктур	-10.941
▁наморщил	-10.941
▁неодобрительно	-10.941
▁однозначно	-10.941
▁вакуум	-10.941
▁выяснилось	-10.941
▁жеребец	-10.941
▁согласн	-10.941
▁манеж	-10.941
▁ветви	-10.9411
▁меж	-10.9411
▁возможно	-10.9411
▁служащий	-10.9412
▁просмотрел	-10.9413
учен	-10.9419
▁стасик	-10.942
▁свято	-10.9424
▁воздушны	-10.9425
▁законч	-10.9428
▁планирую	-10.943
▁выслушал	-10.943
▁проснулась	-10.9434
▁джа	-10.9434
▁капитал	-10.9435
▁повторя	-10.9439
▁слеп	-10.9439
▁сыром	-10.9439
▁тайно	-10.944
▁надежд	-10.9443
▁сильны	-10.9444
▁зомб	-10.9444
▁опасность	-10.9445
▁приготовила	-10.9447
▁жарены	-10.9451
ющаяся	-10.9451
▁скач	-10.9452
▁класса	-10.9452
▁стальн	-10.9455
▁широко	-10.9461
▁исполня	-10.9462
▁карту	-10.9464
▁гип	-10.9467
▁евре	-10.9468
▁спуска	-10.9468
▁осмотрела	-10.9473
▁облегча	-10.9474
▁приход	-10.9475
▁уважа	-10.9475
▁виртуальны	-10.9479
▁доверие	-10.948
▁праздн	-10.948
▁гри	-10.948
▁наук	-10.9481
▁горош	-10.9482
▁художественн	-10.9487
▁сложность	-10.9492
▁близ	-10.9492
▁звуков	-10.9494
▁зубов	-10.9495
▁паш	-10.9499
льня	-10.95
эро	-10.9503
▁родин	-10.9508
▁завел	-10.9509
▁ветра	-10.9509
▁кулак	-10.9511
вых	-10.9512
▁выполнен	-10.9514
▁уважал	-10.9516
▁дешев	-10.9517
строения	-10.9517
▁небе	-10.9519
▁ганс	-10.952
▁случил	-10.9522
▁хокк	-10.9523
▁сквоз	-10.9527
ида	-10.9531
▁юнош	-10.9533
▁аргентин	-10.9533
▁бейсбол	-10.9533
▁приезжает	-10.9533
▁болота	-10.9533
▁выражает	-10.9533
▁седьмо	-10.9533
▁маш	-10.9534
▁обращение	-10.9534
▁пиани	-10.9535
▁сожале	-10.9536
▁градус	-10.9536
▁кружил	-10.9538
▁ястреб	-10.9538
▁веселье	-10.9539
ером	-10.9539
▁фант	-10.954
▁определить	-10.9541
▁влияние	-10.9541
▁пастух	-10.9542
▁гроза	-10.9542
ливень	-10.9546
▁красками	-10.9549
▁поднимают	-10.955
чив	-10.9551
▁загорает	-10.9557
▁мощны	-10.9557
нина	-10.9558
▁комар	-10.9559
шие	-10.956
▁варя	-10.9561
▁знания	-10.9568
▁данка	-10.9573
▁миров	-10.9578
▁регистр	-10.9581
▁туча	-10.9581
▁гуляет	-10.9582
▁минск	-10.9584
▁пряж	-10.9587
▁котов	-10.9587
▁остановки	-10.959
яркий	-10.9592
▁герман	-10.9595
▁светит	-10.96
▁беда	-10.96
лег	-10.9605
▁мертв	-10.9607
▁прозрачн	-10.9608
▁оппозици	-10.9609
▁мисси	-10.9611
▁стреляе	-10.9612
▁освещала	-10.9612
▁нету	-10.9615
шая	-10.9617
▁чаю	-10.9617
▁общи	-10.9621
▁зерна	-10.9624
▁глубок	-10.9626
▁крыло	-10.9627
▁гвозди	-10.9628
▁белорусси	-10.963
▁металла	-10.9631
▁изучающ	-10.9635
▁китае	-10.9635
▁злы	-10.9641
гул	-10.9645
зия	-10.9646
▁може	-10.9648
▁горизонт	-10.9649
▁темп	-10.9649
▁итальянск	-10.9652
анием	-10.9652
▁снят	-10.9657
ушаешь	-10.9658
▁убили	-10.9658
▁безмолвн	-10.9658
▁наполеон	-10.9658
▁обалдел	-10.9658
▁схрумкал	-10.9658
▁архив	-10.9658
▁плечами	-10.9658
▁шлейф	-10.9658
▁маркетинг	-10.9658
▁скажет	-10.9658
▁улетают	-10.9658
▁прогресс	-10.9658
▁помеща	-10.9659
▁рассвет	-10.9659
▁степанович	-10.966
▁питания	-10.966
▁33	-10.9661
▁осветил	-10.9663
▁драться	-10.9663
▁сигарету	-10.9664
▁городско	-10.9665
▁восточн	-10.9665
яется	-10.9667
▁полученны	-10.9667
▁шп	-10.9675
▁лай	-10.9675
▁оформление	-10.9676
▁факты	-10.968
▁юридическ	-10.968
▁славян	-10.968
▁эхо	-10.9681
▁активиру	-10.9683
▁электронн	-10.9685
▁воспитал	-10.9685
▁продолж	-10.9685
▁изображает	-10.9687
ография	-10.9689
▁вести	-10.9692
ставить	-10.9693
▁приобретал	-10.9693
очки	-10.9698
▁алька	-10.9703
водят	-10.9704
▁произведения	-10.9705
▁допускает	-10.9708
чаще	-10.9708
▁сережк	-10.9709
▁разру	-10.971
▁мес	-10.9714
▁остры	-10.9714
▁дул	-10.9719
летит	-10.972
▁напряг	-10.972
вшего	-10.9723
▁йог	-10.9726
▁сыгра	-10.9727
▁делом	-10.9729
▁ире	-10.9729
бить	-10.9731
▁защищал	-10.9737
▁мышку	-10.9737
▁льд	-10.9738
▁капуст	-10.9742
▁вело	-10.9752
аешься	-10.9757
▁люс	-10.9759
▁мечт	-10.976
▁старая	-10.9762
▁переглядыва	-10.9762
▁двига	-10.9764
▁данилк	-10.9765
▁талант	-10.9767
▁разглядываю	-10.9771
▁мексик	-10.9773
▁англи	-10.9778
лить	-10.978
▁сопротивля	-10.9781
▁древне	-10.9781
▁игнат	-10.9781
▁куст	-10.9784
▁разработк	-10.9785
▁свадебны	-10.9785
▁сокращает	-10.9785
▁угрожа	-10.9785
▁альберт	-10.9785
▁засопел	-10.9785
▁сиденье	-10.9785
▁маневренность	-10.9785
▁узел	-10.9786
▁плечо	-10.9786
▁заседание	-10.9786
▁прожектор	-10.9786
▁кудрин	-10.9787
▁дважды	-10.9787
▁мрачно	-10.9787
▁тропинк	-10.9789
▁двойно	-10.9789
▁колюч	-10.9789
▁зайцев	-10.979
▁войне	-10.9791
▁польш	-10.9796
▁недорог	-10.98
талия	-10.9801
▁смени	-10.9801
▁колдун	-10.9804
▁свойственно	-10.9804
▁торопи	-10.9804
▁какао	-10.9805
▁плит	-10.9807
▁корни	-10.981
▁сруб	-10.9812
евых	-10.9812
▁любует	-10.9813
▁определенно	-10.9816
▁достиг	-10.9818
▁жалобно	-10.982
▁муки	-10.982
▁дружб	-10.9823
▁трамвай	-10.9823
▁(	-10.9824
▁правильны	-10.9824
▁полит	-10.983
▁борьба	-10.9832
▁винограда	-10.9833
▁напряжение	-10.9833
▁спальн	-10.984
▁отдыхаю	-10.9843
физ	-10.9845
▁лен	-10.9847
▁засыпал	-10.9852
▁памят	-10.986
▁склонил	-10.9861
отня	-10.9861
▁смехом	-10.9862
▁участки	-10.9863
▁карм	-10.9864
ходной	-10.9866
▁овощ	-10.9866
▁функционал	-10.987
▁америк	-10.987
▁дублирует	-10.9873
▁c	-10.9874
▁наверх	-10.9877
▁местно	-10.9878
ьное	-10.9878
ерша	-10.988
▁легкий	-10.9884
▁завтрака	-10.9884
▁развлека	-10.9886
▁продолжительн	-10.9889
▁авиа	-10.989
▁судьба	-10.9898
▁мух	-10.9901
▁оправ	-10.9902
▁удивлен	-10.9904
завести	-10.9906
▁привлекл	-10.9907
49	-10.9909
▁принадлежа	-10.9911
▁гуляю	-10.9911
▁болезни	-10.9913
▁комбинезон	-10.9913
▁меркури	-10.9913
▁оскорбля	-10.9913
▁кушанье	-10.9913
▁ельцин	-10.9913
▁стыдливо	-10.9913
▁роберт	-10.9913
▁снимают	-10.9914
▁арендатор	-10.9914
▁прячутся	-10.9914
▁ильич	-10.9915
▁бабочк	-10.9915
▁печаль	-10.9915
майда	-10.9916
▁золота	-10.9916
▁прояснил	-10.9917
▁укры	-10.9917
▁ответа	-10.9919
▁блестел	-10.992
▁прижал	-10.992
▁усы	-10.9921
▁конс	-10.9924
▁сдач	-10.9925
▁зад	-10.9927
▁заказывает	-10.9927
▁имен	-10.9927
▁панель	-10.9928
▁отсек	-10.9929
▁джем	-10.993
омара	-10.993
▁обрыв	-10.9936
▁изменяет	-10.9937
▁регулярно	-10.9939
▁клубник	-10.9942
▁опустили	-10.9948
▁обмена	-10.995
▁пейзаж	-10.9959
▁жестки	-10.9962
▁травм	-10.9962
▁рк	-10.9964
▁изуча	-10.9964
несли	-10.9965
▁котиков	-10.9965
ятел	-10.9967
▁завершает	-10.9967
▁окошко	-10.9969
▁высота	-10.9969
▁исследование	-10.9971
жды	-10.9973
▁панорам	-10.9974
▁засыпа	-10.9974
▁восхищение	-10.9978
▁лыж	-10.998
▁водят	-10.998
арей	-10.9982
▁жалоб	-10.9982
▁плавно	-10.9982
▁носом	-10.9984
▁угол	-10.9984
▁тетрадк	-10.9985
фти	-10.9987
▁тес	-10.9988
▁карточк	-10.9993
тип	-10.9997
инск	-10.9998
▁глазел	-11
пружина	-11
▁граб	-11.0002
▁попробу	-11.0008
▁фары	-11.0017
▁позад	-11.0019
▁относит	-11.0019
ведение	-11.0019
▁стран	-11.0021
▁доск	-11.0021
▁техник	-11.0023
▁акт	-11.0024
▁надежность	-11.0025
▁качественны	-11.0026
▁мерца	-11.0027
▁боев	-11.0031
▁половина	-11.0033
▁точка	-11.0034
▁оцен	-11.0036
▁работала	-11.0038
▁женат	-11.0039
▁парне	-11.004
▁учат	-11.0041
▁вентилятор	-11.0043
▁демонстрируе	-11.0043
▁зазвонил	-11.0043
▁инопланетян	-11.0043
▁владислав	-11.0043
▁равня	-11.0043
▁приговор	-11.0043
▁разбойник	-11.0043
▁ослабля	-11.0043
▁отдельная	-11.0043
▁турнир	-11.0043
▁замолк	-11.0043
▁кассир	-11.0043
▁взаимн	-11.0043
▁флаг	-11.0043
▁зажевал	-11.0043
▁зебр	-11.0043
▁поездки	-11.0044
▁дышит	-11.0044
▁использование	-11.0045
▁подвеск	-11.0045
▁компот	-11.0045
▁подума	-11.0045
▁освещало	-11.0046
▁загадочно	-11.0049
▁44	-11.0051
▁временем	-11.0053
▁52	-11.0053
▁доводило	-11.0053
одав	-11.0062
дикт	-11.0062
▁супчик	-11.0065
▁финал	-11.0066
▁мани	-11.0067
▁укладывает	-11.007
▁покупател	-11.0071
▁коле	-11.0071
▁воспринимает	-11.0072
▁зарплата	-11.0075
▁арм	-11.0077
▁трон	-11.0079
▁спокойн	-11.008
ческие	-11.0081
▁мамин	-11.0083
рты	-11.0084
▁настю	-11.0086
цк	-11.0089
олька	-11.0098
▁твердо	-11.01
▁46	-11.0101
▁круты	-11.0107
▁возвращают	-11.0108
▁школьники	-11.0108
ируешь	-11.0115
очная	-11.0117
▁бумага	-11.0121
▁пони	-11.0122
▁проща	-11.0123
▁привлек	-11.0123
ющих	-11.0128
▁главным	-11.0131
групп	-11.0132
▁ела	-11.0133
кого	-11.0136
совет	-11.014
▁каменны	-11.0141
▁торговц	-11.0142
▁просьба	-11.0145
▁освещал	-11.0145
▁ред	-11.0146
▁отношени	-11.015
▁крестьяне	-11.0153
▁приключения	-11.0161
▁приглашение	-11.0165
▁пед	-11.0166
▁чет	-11.0166
▁бегал	-11.0167
▁спел	-11.0168
▁населени	-11.0168
ульт	-11.0168
▁плач	-11.0169
▁сине	-11.0169
▁опрашивал	-11.0173
▁мужско	-11.0174
▁аквариум	-11.0174
▁железнодорожн	-11.0174
▁кресле	-11.0174
▁преградил	-11.0174
▁пуппер	-11.0174
▁сжимает	-11.0174
▁удивляет	-11.0174
▁приезжал	-11.0174
▁скушал	-11.0174
▁мученик	-11.0174
▁девяти	-11.0174
▁планшет	-11.0174
▁полотенце	-11.0175
▁последовал	-11.0175
вонюч	-11.0175
увечит	-11.0175
of	-11.0175
▁гуси	-11.0175
▁удобная	-11.0175
▁возглас	-11.0175
▁котика	-11.0176
▁палуб	-11.0177
▁мах	-11.0177
▁измеря	-11.0177
▁выбора	-11.0178
▁сообщения	-11.0179
▁горе	-11.0179
▁танцами	-11.018
▁смена	-11.018
▁отменил	-11.018
▁удивило	-11.0181
▁легкая	-11.0182
▁лондон	-11.0183
▁охраняю	-11.0184
▁настольны	-11.0184
▁люльк	-11.0185
▁тетрадь	-11.0185
▁радиол	-11.0188
▁усталость	-11.0191
▁повернула	-11.0193
▁замира	-11.0197
▁звонки	-11.0197
▁выучить	-11.0198
▁строят	-11.0201
▁итак	-11.0204
▁кольк	-11.0207
▁дне	-11.0211
▁брезгливо	-11.0212
▁песня	-11.0213
▁ожидается	-11.0214
▁обдул	-11.0215
▁задаю	-11.022
▁техническо	-11.0221
ленный	-11.0221
▁стойк	-11.0222
итти	-11.0222
▁алле	-11.0223
▁аренду	-11.0223
▁белье	-11.0225
▁атакует	-11.0226
▁остро	-11.0227
▁пип	-11.0227
▁финансов	-11.0234
▁волшебник	-11.0234
▁иностранны	-11.0234
▁советск	-11.0237
▁высше	-11.0239
▁зерно	-11.0239
нился	-11.0245
▁бабк	-11.0249
▁печально	-11.025
▁хруст	-11.0251
▁сотни	-11.0251
▁коль	-11.0251
▁конференци	-11.0252
▁евгени	-11.0256
данное	-11.0257
гоняет	-11.026
страивает	-11.026
▁заросл	-11.0264
▁гражданск	-11.0268
▁вне	-11.0268
▁проекта	-11.0271
▁скребл	-11.0277
квартир	-11.0278
щица	-11.0278
▁увлек	-11.028
лял	-11.0281
подкладка	-11.0284
▁сведения	-11.0284
▁дышат	-11.0285
▁женски	-11.0291
▁артиллери	-11.0296
▁хлопа	-11.0296
▁гитар	-11.0296
смеялся	-11.0297
▁видом	-11.0299
▁открыты	-11.0299
▁регион	-11.0301
▁проверя	-11.0305
▁внес	-11.0305
▁приподыма	-11.0308
▁вздернул	-11.0308
▁гоблин	-11.0308
▁достаточно	-11.0308
▁исчисля	-11.0308
▁короткая	-11.0308
▁рельеф	-11.0308
▁нарушает	-11.0308
▁гаишник	-11.0308
▁проиграл	-11.0308
▁матрац	-11.0308
▁свекл	-11.0308
▁разорвал	-11.0308
▁крыша	-11.0308
▁производил	-11.0308
▁роджер	-11.0308
▁фургон	-11.0308
▁организатор	-11.0309
▁сверка	-11.0309
▁фонтан	-11.0309
▁копыт	-11.0309
▁рванул	-11.0309
▁зажигалк	-11.031
▁ничем	-11.031
▁старинны	-11.031
▁сладкие	-11.0311
▁конча	-11.0312
▁ярость	-11.0317
вс	-11.0318
▁ширин	-11.0318
оры	-11.0318
▁эрик	-11.0319
▁прическ	-11.0321
▁занятий	-11.0322
▁кушал	-11.0324
▁председатель	-11.0325
▁гран	-11.0326
▁языку	-11.0326
▁французски	-11.0329
▁песк	-11.0335
▁сообщ	-11.0338
▁огород	-11.0339
▁мотив	-11.0339
▁форме	-11.0339
▁тролли	-11.0339
▁добавляют	-11.0341
▁настоящ	-11.0342
классник	-11.0343
▁обидел	-11.0344
▁спальню	-11.0344
▁прошл	-11.0345
▁шенк	-11.0345
▁осадил	-11.0345
▁устанавливают	-11.0347
▁грибами	-11.0348
▁выражало	-11.035
▁употребля	-11.0361
▁колледже	-11.0363
▁картофель	-11.0364
▁выйти	-11.0364
▁владеет	-11.0364
▁деткам	-11.037
▁поет	-11.0371
▁ветром	-11.0372
▁целый	-11.0373
▁бананы	-11.0379
▁истерик	-11.038
менилось	-11.0381
▁кусты	-11.0388
▁поэзи	-11.0391
▁саньк	-11.0409
▁прочь	-11.0411
▁нормальны	-11.0417
▁прибавил	-11.0419
▁ваз	-11.042
▁даче	-11.0421
▁кормл	-11.0426
продажн	-11.0427
совывает	-11.0427
часа	-11.043
▁обвиня	-11.043
▁остр	-11.0431
▁мчал	-11.0437
▁поддержива	-11.0438
▁серы	-11.044
▁лили	-11.044
▁голеностоп	-11.0443
▁косметик	-11.0443
▁существую	-11.0443
▁элегантно	-11.0443
▁девушек	-11.0443
▁распахивает	-11.0443
▁лечится	-11.0443
▁беглец	-11.0443
▁контраст	-11.0443
▁комитет	-11.0443
▁нижняя	-11.0443
▁суток	-11.0443
▁выпрямил	-11.0443
▁решать	-11.0444
▁саратов	-11.0445
▁сценари	-11.0445
▁зачет	-11.0445
▁дернул	-11.0446
▁труба	-11.0448
▁сотряс	-11.0449
▁бурун	-11.0449
▁58	-11.0452
▁масла	-11.0453
▁вечера	-11.0453
▁недостаток	-11.0454
▁личность	-11.0454
▁брюш	-11.0455
▁дог	-11.0458
▁превраща	-11.0459
▁недостаточно	-11.0461
бежать	-11.0461
▁готовы	-11.0463
▁обходит	-11.0464
▁редки	-11.0466
▁грузов	-11.047
сек	-11.0471
▁запустил	-11.0472
▁резкий	-11.0474
очные	-11.0474
▁фраза	-11.0474
вшая	-11.0475
▁творит	-11.0478
▁контр	-11.048
▁трудно	-11.0481
▁остановку	-11.0481
▁андрея	-11.0483
▁лишен	-11.0483
▁картошк	-11.0486
▁культура	-11.0487
▁густой	-11.0488
▁роли	-11.0488
▁маруся	-11.049
▁картинка	-11.0496
соп	-11.0499
▁лимоном	-11.0501
▁обман	-11.0503
▁живог	-11.0507
▁клад	-11.0508
▁аля	-11.0509
▁пройти	-11.051
инна	-11.0511
▁воспита	-11.0511
▁защитно	-11.0514
ключаешь	-11.0515
▁женско	-11.0516
▁грустно	-11.0518
тесь	-11.0519
▁внутреннее	-11.0519
▁возвращает	-11.0519
▁справ	-11.0519
▁производств	-11.052
▁шал	-11.052
▁ян	-11.0521
▁дву	-11.0521
▁апельсинов	-11.0522
сос	-11.0524
▁крут	-11.0525
▁длинны	-11.0527
вернулись	-11.053
▁ели	-11.0532
▁больши	-11.0544
▁пустой	-11.0549
▁особы	-11.055
▁официально	-11.0552
▁подъезд	-11.0552
▁хитр	-11.0553
st	-11.0555
▁сломался	-11.0557
▁слаб	-11.0563
▁какому	-11.0564
▁удара	-11.057
▁взяли	-11.0576
▁двойны	-11.058
▁ночам	-11.058
▁бедолаг	-11.058
▁безжалостно	-11.058
▁браслет	-11.058
▁задолженность	-11.058
▁кирьянов	-11.058
▁обстоятельств	-11.058
▁услышать	-11.058
▁вносит	-11.058
▁рычаг	-11.058
▁султан	-11.058
▁тюлен	-11.058
▁влево	-11.058
▁пьес	-11.058
▁ориентир	-11.0581
▁объектив	-11.0582
▁страус	-11.0583
▁майк	-11.0584
▁галина	-11.0584
▁улыбался	-11.0587
▁сломал	-11.0589
▁кран	-11.0591
▁рассыпа	-11.0591
▁55	-11.0592
▁спишь	-11.0593
▁решит	-11.0598
▁знач	-11.06
▁выходные	-11.0603
ивать	-11.0603
▁рыбок	-11.0606
▁пронзительно	-11.0607
▁педаль	-11.0609
▁зашл	-11.061
▁шубк	-11.061
▁волокн	-11.0611
▁солдата	-11.0613
алия	-11.0614
▁служа	-11.0614
▁тропическ	-11.0615
▁доносит	-11.0617
▁вела	-11.0621
▁надул	-11.0621
писал	-11.0622
которая	-11.0623
▁подвале	-11.0623
▁ошиб	-11.0625
рига	-11.0626
▁новом	-11.0629
▁волшебн	-11.063
ственно	-11.0632
ельные	-11.0634
▁шнуровк	-11.0635
▁лампы	-11.0637
▁конструкции	-11.0641
▁добыч	-11.0642
ношу	-11.0644
ывать	-11.0648
глуб	-11.0648
▁горя	-11.0649
▁мото	-11.0649
▁удивительны	-11.065
▁мостик	-11.065
▁лампу	-11.065
▁монетк	-11.0651
▁терп	-11.0652
▁скрыл	-11.0656
▁гороховы	-11.0658
▁отража	-11.0659
▁операци	-11.066
▁курточк	-11.0662
▁ден	-11.0663
▁желаю	-11.0664
▁окружающ	-11.0664
▁спрашива	-11.0665
▁улетел	-11.0666
пашка	-11.0666
▁выполнят	-11.0673
▁музыканты	-11.0676
олюб	-11.0683
▁охотники	-11.0684
▁конкурс	-11.0696
▁дол	-11.0698
▁прут	-11.0699
▁апельсин	-11.0701
▁гневно	-11.0702
▁используют	-11.0704
▁автомобиле	-11.0704
▁напомни	-11.0707
▁дека	-11.0707
▁плут	-11.071
▁волков	-11.0711
верху	-11.0714
▁движени	-11.0716
▁весы	-11.0717
▁улыбка	-11.0717
▁54	-11.0717
▁двер	-11.0718
▁анатольевич	-11.0719
▁проклят	-11.0719
▁участие	-11.0719
▁горожан	-11.0719
▁клюкв	-11.0719
▁регулирует	-11.0719
▁затеял	-11.0719
▁отправит	-11.0719
▁пирожны	-11.0719
▁одеяло	-11.0719
▁вышли	-11.0719
▁одиннадцат	-11.0719
▁курьер	-11.0719
▁судимости	-11.0719
▁эргономичн	-11.0721
▁миновал	-11.0722
▁числ	-11.0722
▁спута	-11.0722
▁новинк	-11.0723
▁озарило	-11.0724
▁гидро	-11.0724
▁разведение	-11.0725
▁швы	-11.0725
▁кучер	-11.0728
▁отреагировал	-11.0729
▁вылета	-11.0729
▁грузин	-11.0729
▁притворя	-11.073
▁шарф	-11.0732
дно	-11.0734
▁переговоры	-11.0737
▁развязал	-11.0742
▁пятно	-11.0744
▁краб	-11.0745
▁мета	-11.0749
▁песенк	-11.0751
▁ковер	-11.0756
▁яблоко	-11.0758
▁минерал	-11.0763
▁подверг	-11.0763
▁магически	-11.0766
▁сжимал	-11.0768
▁швейцар	-11.0768
▁жале	-11.0769
▁беспокоишь	-11.0771
▁испытывал	-11.0773
▁фотография	-11.0774
▁имеющи	-11.0775
▁самец	-11.0777
▁коврик	-11.0777
▁чищ	-11.0778
▁задержан	-11.0779
▁вру	-11.0781
▁позвони	-11.0781
▁испыт	-11.0785
▁колонк	-11.0786
▁ушли	-11.0787
▁блеск	-11.0792
▁воспоминания	-11.0794
▁бандит	-11.0794
▁одесс	-11.0794
▁бандиты	-11.0795
▁украшал	-11.0796
▁проекты	-11.0808
▁софи	-11.081
▁аудит	-11.0817
▁торговк	-11.0818
▁ощуща	-11.0818
олом	-11.082
▁обош	-11.0823
▁следствие	-11.0824
▁древесина	-11.0826
▁изменился	-11.0828
▁винт	-11.0828
▁чрезвычайно	-11.0829
▁41	-11.0829
▁страхов	-11.083
▁космически	-11.083
▁разбирают	-11.0832
▁чаш	-11.0837
▁сомнева	-11.084
сан	-11.0841
▁цветок	-11.0842
змом	-11.0842
▁чар	-11.0842
▁набирало	-11.0849
▁стучал	-11.0855
▁расположение	-11.0856
▁варит	-11.0856
▁верблюд	-11.0859
▁калифорни	-11.0859
▁приоритет	-11.0859
▁саламур	-11.0859
▁судорожн	-11.0859
▁цифра	-11.0859
▁тащит	-11.086
▁расскажу	-11.086
▁обуял	-11.086
▁визг	-11.086
▁торчал	-11.0861
▁глупости	-11.0861
▁мобильн	-11.0862
▁куниц	-11.0869
▁47	-11.0869
▁павлик	-11.087
▁молочн	-11.0871
▁ухажива	-11.0873
▁еж	-11.0873
▁понижа	-11.0874
▁обжига	-11.0876
▁хотя	-11.0876
рывается	-11.0876
▁чужи	-11.0878
▁военно	-11.0879
▁арми	-11.0879
▁жирн	-11.0881
▁уезжаю	-11.0883
▁рынк	-11.0883
▁лапки	-11.0884
▁страной	-11.0891
▁самым	-11.0894
▁восьмо	-11.0896
▁продуктов	-11.0898
ивание	-11.09
▁базу	-11.0901
▁попадают	-11.0902
▁оптовы	-11.0902
▁поправ	-11.0904
▁любитель	-11.0909
▁ежики	-11.091
ическую	-11.0911
▁бороду	-11.0913
▁увы	-11.0913
▁зона	-11.0913
▁наклон	-11.0916
▁глин	-11.0917
ставлен	-11.0921
путешественников	-11.0922
▁выходу	-11.0922
▁серд	-11.0924
▁качественно	-11.0924
▁максимов	-11.0925
правления	-11.0927
▁парикмахер	-11.0928
▁прита	-11.0929
▁лестница	-11.0933
кругом	-11.0934
▁стене	-11.0939
▁радост	-11.094
▁возник	-11.0943
▁блещ	-11.0944
▁котлеты	-11.0948
▁карп	-11.0949
▁фонд	-11.095
▁пейзажи	-11.0951
▁вспышка	-11.0953
▁голубой	-11.0953
▁уникальны	-11.0957
валась	-11.0958
▁страха	-11.0959
▁подписывает	-11.0961
▁отправляют	-11.0962
▁помог	-11.0963
дыш	-11.0966
▁речк	-11.0967
этаж	-11.0967
соев	-11.0969
▁вычитани	-11.097
года	-11.097
▁лошадк	-11.0971
▁хохот	-11.0971
жусь	-11.0973
▁топот	-11.0977
▁предметов	-11.0983
▁пробел	-11.0983
▁противника	-11.0992
▁облако	-11.0997
▁пулемет	-11.0997
▁бай	-11.0999
▁пенси	-11.0999
▁43	-11.0999
▁международны	-11.0999
▁гипотез	-11.1002
▁египет	-11.1002
▁изобрел	-11.1002
▁интерфейс	-11.1002
▁инцидент	-11.1002
▁каждодневно	-11.1002
▁медведя	-11.1002
▁очаровашк	-11.1002
▁руководство	-11.1002
▁фантастик	-11.1002
▁монарх	-11.1002
▁сдерживает	-11.1002
▁сергея	-11.1002
▁таракан	-11.1002
▁переучивал	-11.1002
▁чеснок	-11.1002
▁стадион	-11.1002
▁столешниц	-11.1002
▁делегаци	-11.1003
▁обратил	-11.1003
▁рельс	-11.1003
▁ладонь	-11.1003
▁когт	-11.1003
▁рассеял	-11.1003
▁совпада	-11.1003
▁вовочка	-11.1004
▁тарара	-11.1006
▁помнил	-11.1007
▁боже	-11.1009
▁сливает	-11.1009
▁раис	-11.101
имый	-11.1013
▁серб	-11.1015
▁лучшая	-11.1015
40	-11.1016
▁комму	-11.1017
▁маз	-11.1018
морозит	-11.1019
▁сфер	-11.1019
▁классическую	-11.102
▁голосов	-11.102
▁митьк	-11.1021
▁эффективность	-11.1022
▁иск	-11.1022
▁вска	-11.1022
▁бедра	-11.1023
▁сертификаты	-11.1027
▁продолжение	-11.1028
▁золоты	-11.103
▁рисов	-11.1031
▁наст	-11.1035
▁текстур	-11.1036
▁покупателе	-11.1038
▁прокат	-11.1039
▁бобр	-11.1042
▁перс	-11.1043
▁оценка	-11.1044
▁экономит	-11.1045
▁торговля	-11.1049
водишь	-11.1049
пользуется	-11.1049
▁утки	-11.1049
▁встречи	-11.1054
▁полиции	-11.1054
▁босс	-11.1054
▁рамка	-11.1055
▁сова	-11.1055
▁подклад	-11.1056
▁проявляют	-11.1059
▁господа	-11.1063
▁подсветка	-11.1071
▁повер	-11.1071
▁мышк	-11.1071
▁еже	-11.1073
▁банан	-11.1083
▁важно	-11.1083
▁алюминиев	-11.1087
▁переста	-11.109
▁толпы	-11.1091
▁звучани	-11.1092
▁траве	-11.1097
▁безопасн	-11.1097
▁бешен	-11.1098
▁люд	-11.1098
без	-11.1101
▁пятнадцат	-11.1104
▁сэр	-11.1107
▁запуст	-11.1107
▁мальчиков	-11.1108
вращается	-11.1108
▁данила	-11.1109
▁проявля	-11.1109
▁крон	-11.1111
▁миф	-11.1112
▁обманываю	-11.1113
▁налог	-11.1114
▁рубашка	-11.1114
▁пластиков	-11.1115
▁лая	-11.1115
▁документов	-11.1118
▁аккуратно	-11.1119
▁унес	-11.1121
▁настоящи	-11.1121
вшую	-11.1128
▁государственн	-11.1131
▁трудност	-11.1134
▁пелена	-11.1135
▁развернул	-11.1136
завод	-11.1137
езжу	-11.1138
▁лекци	-11.1139
▁велико	-11.1139
▁выбирал	-11.114
▁визу	-11.1143
▁трос	-11.1144
▁ассистент	-11.1147
▁вертикальн	-11.1147
▁депресси	-11.1147
▁загранпаспорт	-11.1147
▁приготовь	-11.1147
▁сморщил	-11.1147
▁смягчил	-11.1147
▁гримас	-11.1147
▁урожай	-11.1147
▁равнин	-11.1147
▁милиция	-11.1147
вратно	-11.1147
▁илюша	-11.1147
▁отозвал	-11.1147
▁природу	-11.1148
▁поражал	-11.1148
▁привидени	-11.1148
▁баланс	-11.1148
▁выражение	-11.1148
▁расчитыва	-11.1148
▁надеюсь	-11.1148
▁напева	-11.1149
▁тяжелее	-11.1149
▁приготовления	-11.1149
▁инструктор	-11.1149
▁мэри	-11.1149
▁чукч	-11.1149
▁устраняет	-11.1149
▁зови	-11.1151
▁баллон	-11.1151
▁невеста	-11.1153
▁пастор	-11.1155
▁лиса	-11.1155
▁раскрывает	-11.1155
▁газом	-11.1155
▁зверев	-11.1156
ировщик	-11.1157
убить	-11.1158
▁муха	-11.1158
▁34	-11.1159
▁панически	-11.116
▁возможна	-11.1161
▁новым	-11.1161
▁близко	-11.1162
▁переводчик	-11.1163
▁красив	-11.1164
▁отрицает	-11.1165
▁обрадовал	-11.1165
▁выбирают	-11.1167
▁порядк	-11.1167
▁сильная	-11.1167
▁разговаривал	-11.1169
▁чужой	-11.1169
▁каос	-11.117
▁почту	-11.1171
▁шеф	-11.1171
▁америки	-11.1176
▁ласковы	-11.118
▁улыбается	-11.1181
летие	-11.1181
▁знаете	-11.1184
▁волч	-11.1186
▁заняло	-11.1188
дзу	-11.1189
▁делят	-11.1189
▁названи	-11.1194
▁беседа	-11.1196
▁постоянн	-11.1198
▁официантк	-11.1199
▁окон	-11.1202
▁причины	-11.1204
▁саф	-11.1205
▁физическ	-11.1207
▁театре	-11.1208
▁разговарива	-11.1213
▁примеря	-11.1215
▁ясно	-11.1218
▁трибун	-11.1222
▁национальны	-11.1223
▁частны	-11.1224
▁улучша	-11.1224
▁погубил	-11.1228
▁курины	-11.1232
▁брош	-11.1233
▁разнообразие	-11.1235
▁собственн	-11.1236
▁сыпа	-11.1237
▁вернул	-11.1247
гладил	-11.1249
▁искусств	-11.1252
▁улов	-11.1253
▁плита	-11.1253
▁обраща	-11.1255
▁огорчал	-11.1256
▁вероника	-11.1259
▁одноклассника	-11.126
бли	-11.1262
▁края	-11.1263
▁надева	-11.1264
▁ковид	-11.1269
сб	-11.127
▁футболе	-11.127
▁танцевал	-11.1273
▁вцепил	-11.1276
▁обстрел	-11.1278
▁фав	-11.1278
ической	-11.1279
гли	-11.1283
▁осветило	-11.129
▁уход	-11.1291
фили	-11.1292
мей	-11.1293
▁электромонтаж	-11.1294
▁григорий	-11.1294
▁живопись	-11.1294
▁крапив	-11.1294
▁расстегнул	-11.1294
▁абрикос	-11.1294
▁корабле	-11.1294
▁одобрительно	-11.1294
▁апреле	-11.1294
▁горшок	-11.1294
ограмм	-11.1294
▁прекратит	-11.1294
▁сирен	-11.1295
▁микрофон	-11.1295
▁кузьмич	-11.1295
▁зажгл	-11.1295
▁горьки	-11.1295
▁детства	-11.1295
▁козиев	-11.1295
▁шевелил	-11.1295
▁прочим	-11.1296
\"	-11.1296
▁неприятност	-11.1296
▁дружище	-11.1296
▁чтение	-11.1296
ботинка	-11.1297
▁кланя	-11.1297
▁встает	-11.1297
▁вещей	-11.1298
▁издают	-11.1298
▁портфель	-11.1299
▁мощно	-11.13
▁лавин	-11.1301
▁звонко	-11.1301
▁выстраивает	-11.1303
▁защища	-11.1303
ro	-11.1305
▁жуков	-11.1306
▁обряд	-11.131
▁защита	-11.131
▁зверей	-11.1311
▁великолепны	-11.1311
▁проповед	-11.1312
▁колони	-11.1313
▁учу	-11.1314
▁боец	-11.1315
▁упор	-11.1317
поздн	-11.1318
▁верочк	-11.132
▁интер	-11.1321
▁прочно	-11.1323
дник	-11.1323
▁камеру	-11.1324
▁здани	-11.1325
▁карлик	-11.1326
▁попятил	-11.1327
▁вуз	-11.1328
▁очередно	-11.1328
▁станция	-11.1328
▁сорта	-11.1329
груз	-11.133
▁отрабатывает	-11.1332
▁стихотворение	-11.1335
▁скромно	-11.1338
▁львов	-11.1341
▁стрем	-11.1342
▁освещает	-11.1342
▁заполняют	-11.1348
▁остановились	-11.135
▁победителя	-11.1351
нув	-11.1352
▁сдала	-11.1354
▁испортил	-11.1354
▁отмечает	-11.1356
▁тестировани	-11.1357
ведом	-11.1359
▁приняла	-11.1369
▁продлит	-11.1372
▁вскидыва	-11.1372
in	-11.1372
▁башня	-11.1373
▁затих	-11.1377
▁пыли	-11.1378
▁игрой	-11.1381
▁стороне	-11.1381
▁выигрыва	-11.1381
▁капитальн	-11.1383
▁поваром	-11.139
▁вилк	-11.139
▁атаковал	-11.1391
▁трубк	-11.1397
▁пробег	-11.14
▁обивк	-11.1402
▁магазинчик	-11.1402
▁волка	-11.1404
▁начну	-11.1407
▁снега	-11.1407
аны	-11.1407
▁индивидуальны	-11.1411
▁боевы	-11.1412
▁классически	-11.1415
▁соседк	-11.1421
пело	-11.1426
▁тик	-11.143
▁лыжи	-11.143
▁дос	-11.1431
▁заявил	-11.1433
▁качестве	-11.1433
▁настольн	-11.1434
▁замет	-11.1435
▁сестр	-11.1435
▁хлопал	-11.1438
▁пляже	-11.1438
▁австрали	-11.144
▁наркотик	-11.1441
▁чашк	-11.1441
▁амстердам	-11.1444
▁взвизгнул	-11.1444
▁конфорк	-11.1444
▁кризис	-11.1444
▁наблюдение	-11.1444
▁пневмони	-11.1444
▁подоконник	-11.1444
▁сумрак	-11.1444
▁либерал	-11.1444
▁швед	-11.1444
▁ютуб	-11.1444
▁зря	-11.1444
▁призрак	-11.1444
▁расскажешь	-11.1444
▁явление	-11.1444
▁кобыл	-11.1444
рф	-11.1445
▁грамм	-11.1446
▁брус	-11.1446
▁удаленно	-11.1447
цепил	-11.1449
▁кобел	-11.1451
▁мест	-11.1451
▁удивление	-11.1452
▁женой	-11.1452
▁кравч	-11.1454
▁управляют	-11.1455
▁общая	-11.1456
▁мчит	-11.1456
▁ринул	-11.1456
▁заблокировал	-11.1457
▁провал	-11.1457
▁лечение	-11.1457
▁окутала	-11.1458
▁купц	-11.146
ужно	-11.146
▁душевн	-11.1462
▁предпочт	-11.1464
гур	-11.1465
▁безвоз	-11.1466
ивка	-11.1467
▁санкци	-11.1467
▁канат	-11.1472
▁выдал	-11.1472
▁сварить	-11.1475
чонок	-11.1476
▁мэр	-11.1478
▁развития	-11.1479
▁51	-11.148
▁богаты	-11.1482
▁крупная	-11.1488
▁берега	-11.1489
▁динамик	-11.149
▁драк	-11.1494
▁стрелков	-11.1496
▁надоел	-11.1499
▁приехала	-11.15
▁домашн	-11.1501
▁защитил	-11.1501
▁поэзия	-11.1502
▁согре	-11.1507
▁кустов	-11.1507
▁заполнило	-11.1511
▁собирать	-11.1511
▁раскрыла	-11.1512
акти	-11.1513
▁поступает	-11.1514
▁бегаю	-11.1514
▁проч	-11.1515
▁вели	-11.1516
дут	-11.1518
▁голосом	-11.1522
▁автомобиля	-11.1523
▁больной	-11.1525
▁животинк	-11.1525
место	-11.153
▁взлет	-11.153
▁уезжа	-11.1536
провод	-11.1537
▁храбр	-11.1544
мцев	-11.1544
живал	-11.1549
▁рыбки	-11.1549
▁чашку	-11.155
▁отнес	-11.1555
▁мухи	-11.1563
▁бортик	-11.1566
▁битва	-11.1569
▁постоянны	-11.1574
▁сидеть	-11.1575
ываешь	-11.158
▁желез	-11.1581
кучу	-11.1583
▁дворц	-11.1584
▁зависи	-11.1588
вляюсь	-11.1589
▁носк	-11.1589
▁завис	-11.1592
▁бала	-11.1594
▁фантази	-11.1595
▁загрязнени	-11.1595
▁ландшафт	-11.1595
▁навязывал	-11.1595
▁сопровождают	-11.1595
▁фестивал	-11.1595
▁шарлотт	-11.1595
▁заржал	-11.1595
▁религиозны	-11.1595
▁раздавал	-11.1595
▁ватсон	-11.1595
▁перерыв	-11.1595
▁подернул	-11.1595
▁попыта	-11.1595
▁панели	-11.1595
▁карабин	-11.1595
▁кокос	-11.1595
▁канистр	-11.1596
▁ракеты	-11.1596
▁зависимость	-11.1596
▁владельце	-11.1596
уборщик	-11.1596
▁читатель	-11.1596
▁болельщик	-11.1596
▁мыслей	-11.1597
▁соверша	-11.1598
▁переступил	-11.1599
слойн	-11.1599
▁рацион	-11.16
▁скорост	-11.16
▁торговец	-11.16
▁низкий	-11.1603
▁белорус	-11.1603
▁пластинк	-11.1604
▁салфетка	-11.1604
▁лыс	-11.1604
▁примет	-11.1605
▁дрова	-11.1606
▁драка	-11.1606
▁стиральн	-11.1606
▁стрелок	-11.1608
▁53	-11.1609
▁булочки	-11.161
▁стек	-11.1611
▁кабель	-11.1611
▁скоб	-11.1612
живаю	-11.1614
▁веранд	-11.1615
▁посели	-11.1615
нных	-11.1616
▁спальне	-11.1617
▁стрелк	-11.1618
▁собор	-11.1619
▁твар	-11.1619
▁подтверждают	-11.162
▁откаж	-11.162
▁переглядывал	-11.1622
▁гей	-11.1622
▁ощущения	-11.1624
▁кружит	-11.1625
ирования	-11.1626
▁пельмени	-11.1627
▁кля	-11.1628
нду	-11.1628
нулся	-11.1631
▁лоточ	-11.1632
▁сооружение	-11.1634
▁задне	-11.1634
▁средств	-11.1635
коньки	-11.1637
▁строительств	-11.1645
▁лекарства	-11.1646
▁принудительно	-11.1648
▁мад	-11.1649
▁гуся	-11.1654
▁стройк	-11.1654
▁дурн	-11.1655
▁блин	-11.1657
▁некоторо	-11.1661
▁хоть	-11.1661
▁конфету	-11.1662
▁желтый	-11.1665
▁зарабатывает	-11.1667
▁моет	-11.1668
▁шикарный	-11.1669
▁привезл	-11.1669
▁продвига	-11.1672
▁арбуз	-11.1673
▁горах	-11.1673
▁провед	-11.1673
▁привычк	-11.1674
▁слеж	-11.1675
▁предложения	-11.1678
▁кофта	-11.1678
▁свойство	-11.1679
▁пролета	-11.1682
▁условиях	-11.1686
▁реальност	-11.1687
▁моделируе	-11.1687
▁хвата	-11.1687
▁включился	-11.1688
▁комплектаци	-11.1688
▁носить	-11.1688
▁концов	-11.1689
▁преми	-11.1689
▁лисиц	-11.1689
▁должност	-11.169
▁реальн	-11.1692
▁великий	-11.1694
▁схем	-11.1695
▁добывает	-11.1696
▁длинно	-11.1699
▁мыть	-11.1702
▁торопливо	-11.1703
▁географи	-11.1703
▁говорящи	-11.1703
▁встретить	-11.1705
▁происходя	-11.1706
▁кармане	-11.1708
▁сух	-11.1712
▁полка	-11.1713
▁розов	-11.1713
▁поступа	-11.1714
▁частиц	-11.1715
▁бросал	-11.1722
▁побег	-11.1723
▁женщинам	-11.1726
▁щеки	-11.1734
▁торгов	-11.1734
▁бегает	-11.1735
▁украшения	-11.1735
▁крив	-11.1735
▁руд	-11.1736
▁стрелял	-11.1741
▁получен	-11.1741
фуй	-11.1745
▁боги	-11.1746
▁верещагин	-11.1749
▁гуманитар	-11.1749
▁евгеньевич	-11.1749
▁оранжев	-11.1749
▁пожирает	-11.1749
▁проклина	-11.1749
▁прыгает	-11.1749
▁эластичны	-11.1749
▁руководил	-11.1749
▁удлиненн	-11.1749
▁донбас	-11.1749
▁поколения	-11.1749
▁виталя	-11.1749
стайлер	-11.1749
▁мобилизаци	-11.1749
▁газов	-11.1751
▁соседней	-11.1751
ивания	-11.1752
▁стукнул	-11.1752
▁радуг	-11.1752
▁наркотики	-11.1752
▁тел	-11.1754
▁возница	-11.1754
мотал	-11.1755
▁брюк	-11.1755
▁кустах	-11.1755
▁коммент	-11.1755
▁батьк	-11.1757
▁воротник	-11.1758
▁рисует	-11.1763
▁средн	-11.1763
▁эрн	-11.1765
▁покрывают	-11.1768
▁чемпионат	-11.1769
▁поджидал	-11.177
зову	-11.177
▁враща	-11.1771
▁покидае	-11.1773
▁сериалы	-11.1775
▁грязь	-11.1777
▁каша	-11.1778
▁шикарны	-11.178
▁курят	-11.178
вят	-11.178
▁графин	-11.1784
▁театра	-11.1785
▁дрожал	-11.179
роти	-11.179
▁мик	-11.1792
▁повышенн	-11.1792
▁росла	-11.1794
▁журналисты	-11.1796
▁мини	-11.1798
▁скрыт	-11.18
▁срабатыва	-11.1803
▁записать	-11.1806
▁снежн	-11.1807
нтар	-11.181
▁бутылка	-11.181
▁ma	-11.1811
фф	-11.1811
▁действуе	-11.1814
юри	-11.1817
▁санитар	-11.1818
▁рыжи	-11.1819
▁алексе	-11.1821
▁всему	-11.1822
▁одни	-11.1827
начал	-11.1828
▁сбр	-11.1828
▁тоскливо	-11.1831
▁настоящим	-11.1831
▁сало	-11.1834
▁борьбу	-11.1842
▁вязк	-11.1842
ёр	-11.1843
▁улитк	-11.1846
▁петуш	-11.1846
▁естественно	-11.1848
▁ранены	-11.1848
нести	-11.1848
▁признание	-11.1849
▁сильное	-11.1854
▁продукци	-11.1856
радует	-11.1861
▁страшна	-11.1863
▁летучи	-11.1865
▁кида	-11.1869
▁благодарит	-11.1871
▁благослов	-11.1872
▁бежи	-11.1873
лешка	-11.1876
▁прохлад	-11.1877
▁совы	-11.1877
▁блест	-11.1882
▁проверяют	-11.1884
▁буква	-11.1885
техники	-11.1886
▁снегом	-11.1886
▁необходимы	-11.1888
▁пыл	-11.1889
▁насмешк	-11.1894
▁конц	-11.1895
▁восхища	-11.1895
▁сне	-11.1896
▁лекарство	-11.1897
▁обедал	-11.19
▁содержащ	-11.19
▁пассажир	-11.1902
▁сдают	-11.1903
▁воскрес	-11.1905
▁оборачива	-11.1905
▁кокорев	-11.1905
▁консультант	-11.1905
▁координат	-11.1905
▁навигатор	-11.1905
▁надсмотрщик	-11.1905
▁николаевна	-11.1905
▁подработк	-11.1905
▁подъехал	-11.1905
▁присылал	-11.1905
▁разновидность	-11.1905
▁угрюмо	-11.1905
▁экспедитор	-11.1905
▁норвеж	-11.1905
▁препарат	-11.1905
▁тряпк	-11.1905
▁анатоли	-11.1905
▁акустик	-11.1905
▁поблескива	-11.1905
▁пенобетон	-11.1905
▁установит	-11.1905
▁компилятор	-11.1905
▁трап	-11.1906
▁контракт	-11.1906
▁выбрать	-11.1906
▁напиш	-11.1906
▁клоун	-11.1906
▁ладони	-11.1906
▁карташев	-11.1906
▁пионер	-11.1906
▁подчинил	-11.1906
▁участвуе	-11.1906
▁строга	-11.1907
▁смут	-11.1908
▁богате	-11.1908
▁контролиру	-11.1909
▁правдив	-11.1909
▁старичк	-11.1909
▁голованов	-11.1911
▁новогодн	-11.1912
▁перекрывает	-11.1913
▁ивановна	-11.1913
b	-11.1914
▁57	-11.1914
▁интернете	-11.1914
▁корона	-11.1915
▁предохранитель	-11.1916
▁борьб	-11.1916
▁ломал	-11.1917
▁полицию	-11.1918
▁стер	-11.1918
▁джей	-11.1919
▁длинная	-11.1921
▁убийца	-11.1922
▁скрипел	-11.1922
▁успел	-11.1923
▁рол	-11.1923
▁радиостанци	-11.1924
▁весну	-11.1927
▁будущем	-11.1928
▁тольк	-11.1933
▁добави	-11.1936
▁профессия	-11.1937
▁волг	-11.1938
▁купи	-11.1942
▁военный	-11.1944
▁самой	-11.1945
▁управлени	-11.1947
▁магн	-11.1948
▁основная	-11.1948
▁баг	-11.195
илька	-11.1951
▁могил	-11.1952
▁налил	-11.1954
▁огромная	-11.1961
▁освободил	-11.1963
▁приближается	-11.1967
▁юрк	-11.1969
▁восстанавливает	-11.198
▁уху	-11.198
▁пласт	-11.1982
▁кабинете	-11.1982
▁оксана	-11.1984
▁разрезал	-11.1985
▁ощущал	-11.1995
много	-11.1996
▁шевел	-11.1998
▁жучк	-11.2002
▁эр	-11.2002
смина	-11.2002
▁фиксируют	-11.2002
▁охоту	-11.2003
▁раздража	-11.2006
▁накладк	-11.2007
ованная	-11.2016
▁организаци	-11.2017
▁стриж	-11.2017
▁постав	-11.2019
▁древни	-11.2019
▁ожида	-11.2021
▁подрабатыва	-11.2024
▁свин	-11.2024
▁сумк	-11.2025
▁распростран	-11.2026
годовал	-11.2027
▁япон	-11.203
виток	-11.2036
▁лосин	-11.2037
ложить	-11.2043
▁кисл	-11.2044
▁пользова	-11.2046
▁звери	-11.2046
▁пин	-11.2047
▁светски	-11.2049
▁получают	-11.2049
▁мит	-11.205
▁жевал	-11.2051
луч	-11.2061
▁мань	-11.2064
▁аксенов	-11.2064
▁астронавт	-11.2064
▁интуици	-11.2064
▁кикирилл	-11.2064
▁корреспондент	-11.2064
▁подставил	-11.2064
▁сумрачно	-11.2064
▁хлынул	-11.2064
▁хулиган	-11.2064
▁мичман	-11.2064
▁рустем	-11.2064
▁наказание	-11.2064
▁бонус	-11.2064
▁одинаково	-11.2064
▁отошл	-11.2064
▁мучает	-11.2064
▁лимонад	-11.2064
▁пекин	-11.2065
▁составлял	-11.2065
▁реплик	-11.2066
▁спичк	-11.2066
▁слуга	-11.2066
▁титов	-11.2066
▁ягун	-11.2066
▁рвет	-11.2067
▁санк	-11.2067
▁раскраска	-11.2068
▁наибол	-11.2069
▁идеологически	-11.207
▁ветрянк	-11.2071
▁прошлы	-11.2071
▁разделяют	-11.2072
▁напитков	-11.2072
▁подать	-11.2073
▁включа	-11.2073
▁мамк	-11.2074
▁великан	-11.2075
▁оружия	-11.2076
▁деньгам	-11.2076
банк	-11.2077
▁боятся	-11.2077
▁мелкий	-11.2079
▁видно	-11.208
▁иванов	-11.2082
▁охранял	-11.2083
▁предметы	-11.2083
читать	-11.2083
▁присоединил	-11.2083
ировали	-11.2085
▁разразилась	-11.2089
▁денежн	-11.209
▁окончил	-11.209
▁марат	-11.2096
▁слабость	-11.2097
учить	-11.2098
▁столкнул	-11.2098
кажешь	-11.2099
▁старич	-11.2103
▁обеспеч	-11.2104
местами	-11.2107
нош	-11.211
ографии	-11.2111
▁делит	-11.2111
▁несут	-11.2114
▁платит	-11.2114
кладчик	-11.2117
точки	-11.2118
▁многочисленны	-11.2119
▁поддерживал	-11.212
▁итерация	-11.2122
▁верн	-11.2125
весом	-11.2126
▁ложь	-11.2128
▁путе	-11.2131
▁мокр	-11.2133
▁бутылки	-11.2133
▁способности	-11.2135
▁толкал	-11.2137
идишь	-11.214
▁планирует	-11.214
▁продолжалось	-11.2142
▁пчелк	-11.2146
▁чую	-11.2147
вей	-11.2147
▁коробки	-11.2148
▁государств	-11.2151
▁задан	-11.2152
▁сери	-11.2154
▁свернул	-11.2157
▁укро	-11.2159
▁каб	-11.216
▁попала	-11.216
анг	-11.2164
▁нюк	-11.2167
▁отпер	-11.2168
▁скала	-11.2168
иглу	-11.2169
▁стрельб	-11.2172
▁возобновляет	-11.2175
пост	-11.2178
▁пожима	-11.2184
▁попу	-11.2184
еллоу	-11.2185
иваешь	-11.2186
▁спрашивал	-11.2186
▁случае	-11.2188
▁тарелка	-11.2188
▁нежно	-11.2189
▁занес	-11.2191
ющиеся	-11.2194
▁полоса	-11.2204
▁оформляет	-11.2204
▁дра	-11.2205
▁пул	-11.2209
▁покров	-11.221
▁сохранял	-11.221
▁свидетел	-11.2212
▁колон	-11.2217
▁возьмет	-11.2217
имость	-11.2219
▁аналитик	-11.2221
▁шустр	-11.2225
▁атом	-11.2225
▁дирижер	-11.2225
▁ермаков	-11.2225
▁медведев	-11.2225
▁осьминог	-11.2225
▁поблагодарил	-11.2225
▁повысил	-11.2225
▁разработал	-11.2225
▁соответстви	-11.2225
▁требования	-11.2225
▁упустил	-11.2225
▁фирмы	-11.2225
▁фыркнул	-11.2225
▁перекладин	-11.2225
▁стеллаж	-11.2225
▁ошале	-11.2225
▁оттуда	-11.2225
▁альтернатив	-11.2225
▁иссуш	-11.2225
▁замедляет	-11.2225
▁андреевич	-11.2225
▁отвернулся	-11.2225
▁приедет	-11.2226
▁рисунк	-11.2226
▁деятельности	-11.2226
▁яростно	-11.2226
▁хосейк	-11.2226
▁бармен	-11.2226
▁азиат	-11.2226
▁матов	-11.2226
▁азарт	-11.2226
▁яркая	-11.2226
▁ужастик	-11.2226
▁наркоман	-11.2227
▁европе	-11.2228
▁танцы	-11.2228
▁разливает	-11.2228
▁учения	-11.2228
▁кричал	-11.2229
▁пуск	-11.2231
▁забавляет	-11.2233
▁неожиданн	-11.2234
▁сладкий	-11.2235
▁сладкое	-11.2235
▁сьюз	-11.2235
▁сковыва	-11.2236
▁подполь	-11.2237
▁эва	-11.2237
▁дверей	-11.224
▁описал	-11.2243
▁занимала	-11.2245
▁соревнования	-11.2247
▁уголовн	-11.2248
▁караси	-11.2248
▁кости	-11.2249
▁частей	-11.2249
▁валют	-11.225
▁отвез	-11.2254
▁марус	-11.2255
▁облик	-11.2256
вечность	-11.2259
▁космическ	-11.2259
▁кармаш	-11.2259
▁поделит	-11.2261
▁потомство	-11.2261
▁понимающ	-11.2262
▁одолел	-11.2262
▁сварил	-11.2263
▁основани	-11.2268
онь	-11.2271
▁бомбил	-11.2272
▁разговоры	-11.2274
▁центрально	-11.228
▁реали	-11.2283
▁разломила	-11.2284
▁ветк	-11.2287
▁хохлов	-11.2287
▁налажива	-11.229
▁снегу	-11.2295
▁полосы	-11.2297
цами	-11.2298
▁жару	-11.23
▁39	-11.2303
▁нашло	-11.2303
▁раны	-11.2305
▁пит	-11.2307
▁делить	-11.231
▁добыча	-11.2316
▁бомба	-11.2318
▁смогл	-11.232
▁вырвал	-11.2321
▁соверши	-11.2327
▁град	-11.2329
▁образуется	-11.2333
▁имею	-11.2333
▁учет	-11.2335
▁площадк	-11.2335
текло	-11.2337
писать	-11.2338
▁стихов	-11.2339
▁назначение	-11.2351
▁менялись	-11.2351
▁погоды	-11.2355
▁взросле	-11.2356
▁носило	-11.2358
часть	-11.2358
▁обам	-11.2359
▁слабо	-11.236
▁электричество	-11.2362
▁милая	-11.2362
▁стая	-11.2363
▁чьей	-11.2364
▁невероятн	-11.237
шество	-11.2371
▁хол	-11.2374
▁белка	-11.2383
над	-11.2385
▁васьк	-11.2387
усы	-11.2387
▁герцог	-11.2388
▁оттопыри	-11.2389
▁артефакт	-11.2389
▁архангельск	-11.2389
▁захлестыва	-11.2389
▁индекс	-11.2389
▁иностранец	-11.2389
▁иностранц	-11.2389
▁корабля	-11.2389
▁млекопитающие	-11.2389
▁поглотил	-11.2389
▁снайпер	-11.2389
▁сундук	-11.2389
▁улавлива	-11.2389
▁экспедици	-11.2389
▁жираф	-11.2389
▁сокращени	-11.2389
▁хмыкнул	-11.2389
▁исказил	-11.2389
▁соловей	-11.2389
▁бельги	-11.2389
▁кулинар	-11.2389
▁преследу	-11.2389
▁застигл	-11.2389
▁двигатели	-11.2389
▁застыл	-11.2389
▁террас	-11.239
▁михайлович	-11.239
▁подчиня	-11.239
▁произнес	-11.239
▁издавал	-11.239
▁медленнее	-11.239
▁нарушение	-11.2391
▁обнимает	-11.2392
упало	-11.2392
▁перья	-11.2393
▁разочарование	-11.2394
▁мешк	-11.2394
▁удочк	-11.2395
▁багра	-11.2396
▁показывают	-11.2396
▁заключает	-11.2397
▁грязн	-11.2397
▁простуд	-11.2398
▁общественность	-11.2399
▁берта	-11.2399
▁опт	-11.24
принять	-11.2401
▁десерт	-11.2404
▁балет	-11.2405
потребления	-11.2406
▁извини	-11.2408
▁ложк	-11.2409
центр	-11.2409
▁кислород	-11.2412
рубль	-11.2414
ванны	-11.2415
▁относи	-11.2417
▁хвалит	-11.2421
▁укроп	-11.2421
▁бирж	-11.2423
▁светило	-11.2424
▁гриппом	-11.2424
▁возвышает	-11.2424
▁спокойны	-11.2428
▁награда	-11.2429
▁детишк	-11.2431
▁пропуск	-11.2431
▁травк	-11.2434
▁эмм	-11.2434
▁расти	-11.2435
мира	-11.2437
▁вегетариан	-11.2437
▁обер	-11.2443
▁училищ	-11.245
▁хищн	-11.2452
▁отмени	-11.2453
▁олени	-11.246
▁входа	-11.2461
падение	-11.2461
▁персик	-11.2463
▁потрясающ	-11.2464
▁врачей	-11.2466
▁дождик	-11.2467
▁переживае	-11.2473
▁алекс	-11.2473
▁человечество	-11.2476
▁разреша	-11.2478
▁пешков	-11.2481
утку	-11.2484
▁ополченц	-11.2484
▁села	-11.2494
куча	-11.2495
▁остану	-11.2495
▁свежи	-11.2495
морра	-11.2498
▁еврей	-11.25
▁кремл	-11.2502
▁километров	-11.2503
лились	-11.2504
▁марте	-11.2504
▁мыслит	-11.2504
▁приобрет	-11.2504
▁свободны	-11.2505
▁таран	-11.2506
▁мам	-11.2507
плох	-11.2508
бывший	-11.2512
▁колхоз	-11.2513
▁морга	-11.252
ленное	-11.2521
▁прерывает	-11.2521
▁мило	-11.2522
▁белочк	-11.2522
▁пив	-11.2524
▁земн	-11.2526
▁буквами	-11.2529
▁нарко	-11.253
▁уколол	-11.2531
комнатн	-11.2533
▁физике	-11.2534
▁обрыва	-11.2534
русски	-11.2534
▁терпение	-11.2538
▁волн	-11.2539
бивать	-11.2544
▁колонна	-11.2546
▁злат	-11.2547
элл	-11.2548
стор	-11.2548
ций	-11.2548
курс	-11.2554
▁играми	-11.2554
x	-11.2555
▁геометри	-11.2555
▁соглаша	-11.2556
▁ковыря	-11.2556
▁набережн	-11.2556
▁альбин	-11.2556
▁арифметик	-11.2556
▁арматура	-11.2556
▁батальон	-11.2556
▁геннадьевна	-11.2556
▁девочкой	-11.2556
▁завязывает	-11.2556
▁леопард	-11.2556
▁осиротел	-11.2556
▁превысил	-11.2556
▁свиреп	-11.2556
▁своевременно	-11.2556
▁эксплуатаци	-11.2556
▁зрения	-11.2556
▁нажатие	-11.2556
▁дорожа	-11.2556
▁украшение	-11.2556
▁людоед	-11.2556
▁дорожк	-11.2556
▁запчаст	-11.2556
▁мешал	-11.2556
▁одинокий	-11.2556
▁поможет	-11.2556
▁пюре	-11.2556
▁ревнив	-11.2556
густая	-11.2556
▁признает	-11.2556
▁решетняк	-11.2556
▁предсказыва	-11.2556
▁партнер	-11.2556
▁удобную	-11.2556
снабжени	-11.2557
▁особняк	-11.2557
▁гармон	-11.2557
▁учитывает	-11.2557
▁соус	-11.2557
▁запер	-11.2557
▁объявление	-11.2558
▁корея	-11.2558
энси	-11.2559
▁природны	-11.2559
▁творческ	-11.256
▁сдува	-11.256
▁двигаться	-11.2561
▁склонность	-11.2561
▁питомц	-11.2561
▁ткнул	-11.2561
▁культуры	-11.2562
▁сдела	-11.2562
▁шоу	-11.2563
видишь	-11.2563
▁лавр	-11.2563
▁сухи	-11.2564
▁последователь	-11.2566
▁роял	-11.2566
▁плакать	-11.2568
▁гимнастик	-11.2568
хранилище	-11.2569
▁осматривал	-11.2574
▁видов	-11.2575
▁расплат	-11.2576
▁горько	-11.2576
▁выступил	-11.2577
▁свалил	-11.2579
▁лягушка	-11.2579
▁страшил	-11.258
▁правильн	-11.258
▁держу	-11.2581
нными	-11.2581
▁внимания	-11.2581
▁самоубийств	-11.2582
▁условие	-11.2586
▁чья	-11.2586
▁водителя	-11.2588
▁ург	-11.2588
▁президентом	-11.2599
▁розы	-11.2601
▁массов	-11.2603
▁завтракаю	-11.2605
▁очередн	-11.2606
▁займет	-11.2609
▁травой	-11.261
▁электронно	-11.2611
▁задать	-11.2611
▁уходят	-11.2613
еэн	-11.2616
▁монеты	-11.2618
▁старушк	-11.2618
▁младши	-11.2621
свет	-11.2621
es	-11.2627
▁позици	-11.2634
▁учебник	-11.2635
▁чебурашка	-11.2636
▁хотят	-11.2638
▁блины	-11.264
▁лезвие	-11.264
▁слышала	-11.264
▁подлокотник	-11.2642
▁верси	-11.2642
▁телефонны	-11.2643
▁прелест	-11.2646
▁независимы	-11.2649
▁плохой	-11.265
анск	-11.2651
▁изменение	-11.2652
▁вычитаем	-11.2656
▁охлаждение	-11.2657
▁советы	-11.2658
▁внутренни	-11.2658
▁промышленности	-11.2658
▁требовал	-11.2659
▁крыл	-11.2659
▁охотит	-11.2662
▁официальны	-11.2663
▁буй	-11.2663
▁рукоятка	-11.2665
▁облачн	-11.2665
▁куртк	-11.2666
▁десят	-11.2672
▁актив	-11.2673
▁пуш	-11.2673
▁четвертом	-11.2674
▁борисов	-11.2676
▁приветству	-11.2677
▁закр	-11.2679
▁спасател	-11.268
ждение	-11.2685
al	-11.2687
▁глупый	-11.2687
етта	-11.2689
▁стеклянн	-11.2691
▁человечески	-11.2692
стоял	-11.2695
▁проверяю	-11.2695
▁сигар	-11.2696
▁соединение	-11.2696
▁замечаю	-11.2696
▁диет	-11.2697
анты	-11.2699
▁организма	-11.2704
▁женск	-11.2704
▁торговл	-11.2707
▁футболист	-11.2708
вкус	-11.2709
▁позиции	-11.271
лька	-11.2713
▁стенка	-11.2716
▁роботами	-11.2718
▁эле	-11.2722
▁борд	-11.2723
▁выставил	-11.2725
▁диспетчер	-11.2725
▁завладел	-11.2725
▁казахстан	-11.2725
▁кошмар	-11.2725
▁недолюбливал	-11.2725
▁пиджак	-11.2725
▁стамбул	-11.2725
▁устремил	-11.2725
▁жгуч	-11.2725
▁попросил	-11.2725
▁бампер	-11.2725
▁изолент	-11.2725
▁красавц	-11.2725
▁донецк	-11.2725
▁убирал	-11.2725
▁передвижения	-11.2725
▁льгот	-11.2725
▁мурчалк	-11.2725
▁ерунд	-11.2725
▁нынешн	-11.2725
▁дятл	-11.2725
▁чердак	-11.2725
ещё	-11.2725
▁затопил	-11.2726
▁сканер	-11.2726
▁слуги	-11.2726
▁бьют	-11.2726
▁амбар	-11.2726
▁кружевн	-11.2726
▁размина	-11.2727
шень	-11.2728
▁штурман	-11.2729
▁волна	-11.2729
знавать	-11.273
▁воцари	-11.273
▁взлом	-11.273
▁двойк	-11.273
▁таможенник	-11.2731
▁путник	-11.2732
▁издева	-11.2732
▁чирика	-11.2734
морил	-11.2734
хватит	-11.2734
▁заскрежетал	-11.2734
▁зарычал	-11.2735
70	-11.2735
▁56	-11.2736
▁скачок	-11.2739
▁зев	-11.2739
▁подружка	-11.274
▁продолжил	-11.2741
щенков	-11.2743
▁запоминают	-11.2743
▁лишни	-11.2746
▁психологи	-11.275
▁исчезла	-11.2751
▁газета	-11.2751
▁документаци	-11.2752
▁выстрелил	-11.2752
▁хакеров	-11.2753
▁крыса	-11.2754
▁голосовани	-11.2755
▁2,	-11.2756
▁командировк	-11.2757
▁цветом	-11.2757
анец	-11.2758
ьство	-11.276
▁льда	-11.276
▁толч	-11.2761
▁сохрани	-11.2763
▁каролин	-11.2765
▁коче	-11.2766
образования	-11.2767
▁прогулка	-11.2769
▁пота	-11.2772
▁лиз	-11.2773
▁близки	-11.2775
▁косяк	-11.2775
▁стад	-11.2776
▁сани	-11.2776
▁определенны	-11.2777
дня	-11.278
▁записывает	-11.2781
▁лягушки	-11.2783
▁киск	-11.2786
▁базе	-11.2789
▁внуков	-11.279
▁берут	-11.2792
▁мят	-11.2792
▁увеличи	-11.2796
▁расходу	-11.2797
▁курт	-11.2799
▁бываю	-11.2808
▁безопасност	-11.281
▁лучшим	-11.2814
▁послуша	-11.2815
▁мелоди	-11.282
▁жит	-11.282
▁формула	-11.2821
▁заболела	-11.2822
▁лапа	-11.2823
▁конца	-11.2824
▁обстреливает	-11.2826
▁преграждал	-11.2828
▁физически	-11.2829
ечение	-11.2839
▁студен	-11.284
▁отвеча	-11.2841
▁путешественник	-11.2842
▁силой	-11.2843
▁негры	-11.2844
▁древ	-11.2845
тельное	-11.2846
▁лечу	-11.2848
▁поздрав	-11.2849
падения	-11.285
▁высши	-11.2853
левое	-11.2854
▁крики	-11.2856
▁рыжик	-11.2858
▁спирт	-11.286
▁житель	-11.2861
▁осваивае	-11.2863
▁скр	-11.2869
▁монстр	-11.2873
▁спрашиваю	-11.2875
▁фермер	-11.2877
класс	-11.288
▁масса	-11.2883
приемник	-11.2884
▁малы	-11.2884
▁груш	-11.2889
▁забыла	-11.2896
иллюстрируе	-11.2898
ообразование	-11.2898
▁бодибилдинг	-11.2898
▁взмахнул	-11.2898
▁доверчив	-11.2898
▁доктрин	-11.2898
▁дрессировк	-11.2898
▁завершит	-11.2898
▁конституци	-11.2898
▁кроссворд	-11.2898
▁перелистал	-11.2898
▁подешевел	-11.2898
▁португали	-11.2898
▁регулятор	-11.2898
▁теракт	-11.2898
▁ухудшает	-11.2898
▁воробей	-11.2898
▁повиновал	-11.2898
▁путешеству	-11.2898
▁считаешь	-11.2898
▁сбербанк	-11.2898
▁милиции	-11.2898
▁аристотел	-11.2898
▁ярмарк	-11.2898
▁росомах	-11.2898
▁обзор	-11.2898
▁приятный	-11.2898
▁скелет	-11.2898
▁пермяк	-11.2898
▁пролега	-11.2898
▁череповц	-11.2898
▁укусил	-11.2898
▁оболочк	-11.2898
▁олимпиад	-11.2898
▁идилли	-11.2898
▁бабочек	-11.2899
▁слопал	-11.2899
▁поставляют	-11.2899
▁выпива	-11.2899
▁букет	-11.29
▁пресв	-11.2901
▁пользовал	-11.2901
▁угу	-11.2901
▁пальм	-11.2902
▁алешин	-11.2902
▁коньяк	-11.2902
▁состоящий	-11.2902
▁портит	-11.2903
▁корову	-11.2904
▁портал	-11.2905
▁интересуют	-11.2906
▁сект	-11.2907
▁выросл	-11.2909
▁негрит	-11.291
▁крестьян	-11.291
отопление	-11.2914
▁разлил	-11.2915
▁форточк	-11.2915
▁следит	-11.2917
▁синий	-11.2918
▁дай	-11.2919
▁малин	-11.2919
▁страш	-11.292
▁собачку	-11.2921
▁возраста	-11.2922
▁присел	-11.2925
▁гарик	-11.2925
▁расстояни	-11.2926
▁конкурса	-11.2928
ращивает	-11.2928
▁морско	-11.2928
жается	-11.2929
▁ликер	-11.293
▁подходящи	-11.2931
▁классическ	-11.2932
▁кормят	-11.2934
носик	-11.2938
▁законом	-11.2939
▁задумался	-11.294
▁кулаки	-11.294
▁экономик	-11.294
▁сложност	-11.2941
▁следил	-11.2941
▁выключи	-11.2941
▁генерирует	-11.2941
веселый	-11.2942
▁меры	-11.2944
▁литературы	-11.2945
▁галактики	-11.2945
▁чарл	-11.2947
▁удобно	-11.2947
разном	-11.2952
цизм	-11.2959
▁праг	-11.2961
▁девчушка	-11.2963
▁рассматривают	-11.2963
▁квалифицированн	-11.2965
▁сохранит	-11.2968
▁увеличивают	-11.2973
▁0,	-11.2974
▁кончал	-11.2979
▁сестре	-11.298
▁бросила	-11.2982
группа	-11.2983
▁российско	-11.2983
▁изменилось	-11.2985
▁метра	-11.2985
▁осл	-11.2991
верить	-11.2992
▁праздники	-11.2993
ратор	-11.2993
нюхал	-11.2995
биваешь	-11.3004
так	-11.3004
▁полос	-11.3004
▁узки	-11.3005
нравилось	-11.3005
▁мотоцикле	-11.3005
▁дмитри	-11.3006
▁рисую	-11.3009
▁биологи	-11.3012
▁убежал	-11.3015
▁навес	-11.3015
▁пьют	-11.3018
▁молчали	-11.302
▁происходил	-11.3033
плата	-11.3036
▁куск	-11.304
▁особенн	-11.304
▁перевоз	-11.304
▁развивают	-11.3042
▁фраз	-11.3045
▁естественны	-11.305
▁воздухо	-11.305
▁держала	-11.3055
▁шотландц	-11.3059
▁кант	-11.306
▁объедин	-11.3062
▁бодр	-11.3064
▁китая	-11.3064
▁разбирал	-11.3065
▁шахт	-11.3067
▁настрой	-11.3069
▁60	-11.307
▁вздох	-11.3072
▁согласовыва	-11.3073
▁альбом	-11.3073
▁архитектур	-11.3073
▁баррикад	-11.3073
▁млекопитающих	-11.3073
▁организовал	-11.3073
▁отвращение	-11.3073
▁шрифт	-11.3073
▁адмирал	-11.3073
▁изобилу	-11.3073
▁портвейн	-11.3073
▁успокоит	-11.3073
▁фиксаци	-11.3073
▁отстрел	-11.3073
▁кишел	-11.3073
▁рекорд	-11.3073
▁дремл	-11.3073
▁мяука	-11.3073
▁пандеми	-11.3073
▁счастья	-11.3073
▁прид	-11.3074
▁племен	-11.3074
▁изображения	-11.3074
▁подворачива	-11.3074
▁гусев	-11.3074
▁письменно	-11.3074
▁литров	-11.3074
▁соловь	-11.3075
▁помад	-11.3075
▁планируешь	-11.3075
▁жалость	-11.3076
▁светлая	-11.3076
▁сметан	-11.3076
▁ручно	-11.3076
▁олегович	-11.3076
▁ахнул	-11.3077
▁разбуди	-11.3078
▁кусал	-11.3078
▁камыш	-11.3078
▁мила	-11.3078
▁гаван	-11.3079
▁олицетворя	-11.308
▁культ	-11.308
▁топливо	-11.3081
▁маляр	-11.3081
▁чушь	-11.3086
▁резиновы	-11.3087
▁включаю	-11.3088
▁котенк	-11.3089
▁правд	-11.3091
▁открыва	-11.3093
▁тамбур	-11.3094
▁повторил	-11.3101
▁стив	-11.3102
▁сменило	-11.3103
имости	-11.3105
заперт	-11.3106
▁выращиваю	-11.3106
▁реализаци	-11.3111
▁зверь	-11.3112
▁размышля	-11.3113
▁сборн	-11.3114
▁фактическ	-11.3114
▁цеп	-11.3114
▁вкусны	-11.3115
▁рассчитыва	-11.3119
▁будущи	-11.3119
анны	-11.3121
▁коже	-11.3122
ойдет	-11.3122
▁представлял	-11.3123
▁должно	-11.3123
▁пина	-11.3125
чать	-11.3126
▁подходил	-11.3129
▁поесть	-11.313
▁горячая	-11.3133
▁социальны	-11.3136
▁постель	-11.3137
▁рассчита	-11.314
▁стремлени	-11.314
▁болото	-11.3141
▁восстановил	-11.3141
▁образует	-11.3143
▁андре	-11.3149
▁неизвестны	-11.3149
▁преподаю	-11.315
▁нитк	-11.3153
капли	-11.3157
▁умирал	-11.316
▁одним	-11.3162
▁закрыт	-11.3165
▁детском	-11.3166
▁тайна	-11.3179
▁привыч	-11.3182
50	-11.3187
▁сжимало	-11.3189
▁твоем	-11.3191
▁видал	-11.3194
▁кролика	-11.3196
▁дво	-11.3196
▁дяд	-11.3197
дружка	-11.3197
▁папе	-11.3198
▁знамениты	-11.3201
▁съемк	-11.3204
▁исчезае	-11.3204
лагает	-11.3205
▁наливает	-11.3207
▁сока	-11.3207
▁чекист	-11.3208
▁59	-11.3209
бук	-11.3211
▁подразделени	-11.3212
▁вылива	-11.3214
▁лимоны	-11.322
чиком	-11.3221
▁согласие	-11.3222
▁отслеживает	-11.3223
мывается	-11.3224
план	-11.3225
▁хищники	-11.3226
▁смел	-11.3227
▁провинци	-11.3228
▁путешественники	-11.3231
▁обедаю	-11.3232
▁оказывают	-11.3232
▁гора	-11.3232
▁высоким	-11.3235
▁направляет	-11.3238
▁сур	-11.3239
▁основатель	-11.3244
▁била	-11.3244
▁мясн	-11.3245
▁дожд	-11.3246
▁сып	-11.3247
▁выставочн	-11.3248
▁риф	-11.3251
▁госпитал	-11.3251
▁марса	-11.3252
▁снаб	-11.3252
▁алфавит	-11.3252
▁воробьи	-11.3252
▁клавиатур	-11.3252
▁недвижн	-11.3252
▁ощупал	-11.3252
▁подготовил	-11.3252
▁подъезжа	-11.3252
▁присутству	-11.3252
▁севастопол	-11.3252
▁сопротивление	-11.3252
▁агафонов	-11.3252
▁варшав	-11.3252
▁коммуналк	-11.3252
▁набирают	-11.3252
▁угощал	-11.3252
▁нещадно	-11.3252
▁очутил	-11.3252
▁эвелин	-11.3252
▁нарастал	-11.3252
▁жрец	-11.3252
▁происшестви	-11.3252
▁кресла	-11.3252
▁утюг	-11.3252
▁блокнот	-11.3252
▁светильник	-11.3252
▁пирамид	-11.3252
▁паутин	-11.3252
▁ругать	-11.3252
▁незаметно	-11.3252
▁правительства	-11.3252
▁медаль	-11.3253
▁отбивал	-11.3253
▁стулья	-11.3253
▁планировк	-11.3254
▁лицензи	-11.3254
▁страсть	-11.3254
оева	-11.3255
▁греции	-11.3255
▁развози	-11.3255
▁желания	-11.3255
▁перрон	-11.3256
▁грусти	-11.3256
▁финн	-11.3256
▁плыве	-11.3257
▁атака	-11.3257
▁анкар	-11.3257
дочери	-11.3258
▁гастро	-11.3258
▁фред	-11.326
▁интересовал	-11.326
▁купит	-11.3261
ремешок	-11.3261
▁отмет	-11.3262
▁лисенк	-11.3262
▁туризм	-11.3263
▁жадность	-11.3264
нтер	-11.3264
▁заключение	-11.3264
▁кристалл	-11.3264
далек	-11.3266
▁зайца	-11.3266
▁помогл	-11.3268
▁капля	-11.3269
▁приволок	-11.327
▁хаос	-11.327
▁пришлось	-11.3272
▁арестован	-11.3276
▁разряд	-11.3276
▁успехом	-11.3277
летня	-11.3278
▁состоят	-11.3279
▁ветки	-11.328
▁безусловно	-11.3284
▁нашлась	-11.3287
▁миск	-11.3289
▁достоинство	-11.3291
▁уезжает	-11.3294
правлен	-11.33
▁рыж	-11.33
▁государственном	-11.3305
▁избил	-11.3307
▁салаты	-11.3312
▁услышала	-11.3314
▁слову	-11.3315
▁рассердил	-11.3318
▁сеня	-11.3318
▁общественны	-11.3322
▁тарелки	-11.3325
▁личн	-11.3331
▁старого	-11.3337
▁ласковый	-11.3338
▁маски	-11.3338
▁плюшев	-11.3341
▁бегут	-11.3348
▁париже	-11.3349
▁пса	-11.335
▁одевала	-11.3351
▁допрос	-11.3351
▁юмора	-11.3354
▁препода	-11.3355
▁исполняет	-11.3356
▁покупаю	-11.336
▁опасност	-11.336
▁строение	-11.3362
▁книжка	-11.3363
▁спасти	-11.3371
▁приготовленно	-11.3373
сенко	-11.3375
▁бассейне	-11.3376
▁академи	-11.3376
▁открыто	-11.3378
брызги	-11.3379
▁дружба	-11.3385
▁торжественно	-11.3386
▁подтягива	-11.3388
▁подсвечивает	-11.3391
▁дует	-11.3392
▁ягод	-11.3392
вщик	-11.3396
▁отмеча	-11.34
▁корабли	-11.3401
▁резиново	-11.3403
▁денежны	-11.3404
▁засел	-11.3406
▁полезно	-11.3407
бросок	-11.3408
▁выгод	-11.3409
▁толкнул	-11.3412
▁термо	-11.3415
▁выделит	-11.3417
▁участвовал	-11.3419
▁раци	-11.3422
ницей	-11.3423
дд	-11.3425
▁выключа	-11.3427
▁пачка	-11.3429
▁модели	-11.343
▁помещени	-11.343
▁грунт	-11.3433
корректирует	-11.3434
▁брезент	-11.3434
▁воробья	-11.3434
▁гусениц	-11.3434
▁доказательств	-11.3434
▁коротышк	-11.3434
▁медведей	-11.3434
▁насекомые	-11.3434
▁настойчиво	-11.3434
▁поклеп	-11.3434
▁препятствие	-11.3434
▁пропустил	-11.3434
▁сработал	-11.3434
▁шашлык	-11.3434
▁насторажива	-11.3434
▁продавщиц	-11.3434
▁пепси	-11.3434
▁вселенной	-11.3434
▁римлян	-11.3434
▁круиз	-11.3434
▁ремня	-11.3434
▁загородил	-11.3434
▁исповеда	-11.3434
▁поросят	-11.3434
▁сесси	-11.3434
▁разноцветн	-11.3434
▁издание	-11.3434
▁свиньи	-11.3434
▁увеличение	-11.3434
▁напад	-11.3434
▁излучае	-11.3434
▁капельк	-11.3434
▁миккел	-11.3434
▁людмил	-11.3434
▁майдан	-11.3435
▁выжидательн	-11.3435
▁кэт	-11.3436
▁равномерно	-11.3436
▁вражеск	-11.3436
▁заяв	-11.3436
дату	-11.3437
▁премьера	-11.3437
▁оленя	-11.3438
▁краж	-11.344
▁испытал	-11.3441
▁шурк	-11.3441
▁величин	-11.3442
▁тихонько	-11.3443
▁лекции	-11.3444
▁построен	-11.3444
▁июнь	-11.3445
▁повтор	-11.3446
▁переносит	-11.3448
▁серег	-11.3449
▁потянулся	-11.3449
пд	-11.3449
▁украшениями	-11.345
▁ганд	-11.3451
▁правил	-11.3452
▁плохи	-11.3452
▁ламп	-11.3452
▁сами	-11.3454
▁хитрость	-11.3454
▁риску	-11.3456
▁костр	-11.3458
жер	-11.3459
кладывает	-11.346
▁встаю	-11.346
▁николь	-11.3461
▁прекрасным	-11.3462
▁дрон	-11.3464
▁подвел	-11.3464
▁запретил	-11.3465
▁модельер	-11.3465
▁варить	-11.3466
водить	-11.3467
▁закрыты	-11.3468
▁маска	-11.3469
▁стеклянны	-11.347
▁попробова	-11.3472
▁обслужива	-11.3472
твоему	-11.3475
▁богатыр	-11.3479
чком	-11.3479
▁шту	-11.3482
▁исправит	-11.3486
чувствительность	-11.3486
▁дежурны	-11.3489
плитка	-11.3491
дружить	-11.3492
▁дочку	-11.3492
▁взглядами	-11.35
зель	-11.3503
▁удерживал	-11.3507
▁изготовляет	-11.3509
▁куш	-11.3513
▁провалил	-11.3515
▁спори	-11.3517
▁практик	-11.3519
▁скучно	-11.3522
разовы	-11.3524
▁лужа	-11.3525
▁естественн	-11.3526
слышишь	-11.3526
▁притвор	-11.3528
▁сокруш	-11.3528
▁пэ	-11.353
▁повторно	-11.3532
▁продвигает	-11.3533
▁оставля	-11.3534
▁апельсины	-11.3534
▁гостиница	-11.3536
▁растр	-11.3539
▁вскрикнула	-11.3542
▁шахмат	-11.3542
▁стенд	-11.3543
▁метл	-11.3544
▁зараз	-11.3545
▁тихон	-11.355
▁регулиров	-11.3551
▁отеля	-11.3552
▁перенес	-11.3554
▁выставка	-11.3555
щип	-11.3561
▁копчен	-11.3562
▁рода	-11.3564
▁брать	-11.3565
нде	-11.3573
▁удобны	-11.3573
▁носишь	-11.3574
▁реш	-11.3576
▁радовало	-11.3577
▁аукцион	-11.358
▁принимала	-11.3581
▁собол	-11.3583
▁железа	-11.3584
▁партия	-11.3588
▁учебны	-11.3588
▁игор	-11.359
▁искусства	-11.3592
▁бежать	-11.3593
▁соревновани	-11.3594
▁государ	-11.3594
▁отбрасыва	-11.3595
▁рыцар	-11.3597
▁просмотр	-11.3602
▁совместно	-11.3607
гонки	-11.3607
▁печенье	-11.3608
▁мудр	-11.3608
▁трактор	-11.3609
▁стратеги	-11.3609
▁фокус	-11.3611
▁монгол	-11.3611
▁физики	-11.3612
▁противореч	-11.3614
▁поразительн	-11.3614
зовешь	-11.3614
▁вешал	-11.3616
▁ростом	-11.3618
▁агрегат	-11.3619
▁вздрогнул	-11.3619
▁воспользу	-11.3619
▁гангстер	-11.3619
▁дэвид	-11.3619
▁заброшенн	-11.3619
▁компенсаци	-11.3619
▁озабоченно	-11.3619
▁орудие	-11.3619
▁телеграмм	-11.3619
▁энергетик	-11.3619
▁эрдоган	-11.3619
▁зашкалива	-11.3619
▁ленинград	-11.3619
▁похитил	-11.3619
▁ухудши	-11.3619
▁горничн	-11.3619
▁добира	-11.3619
▁галкин	-11.3619
▁исключительно	-11.3619
▁поплыл	-11.3619
▁транше	-11.3619
▁крыльев	-11.3619
▁батюшк	-11.3619
▁привлекательн	-11.3619
▁отдельный	-11.362
▁молодняк	-11.362
▁жидкости	-11.362
▁ревизи	-11.362
▁куклу	-11.362
терьер	-11.362
▁комод	-11.3621
▁ходьб	-11.3622
▁пополз	-11.3623
▁бесконечно	-11.3623
потреб	-11.3625
▁защитник	-11.3625
▁чир	-11.3626
▁приняли	-11.3629
▁нефтяник	-11.3631
▁чипс	-11.3631
▁боялся	-11.3631
опалов	-11.3631
▁тропа	-11.3633
▁построит	-11.3633
▁дуд	-11.3637
озлик	-11.3639
▁счастливый	-11.3642
▁кукольн	-11.3643
любовал	-11.3644
▁фильк	-11.3644
▁театральн	-11.3645
▁удивительн	-11.3646
▁долгопол	-11.3649
▁дышать	-11.365
▁хохотал	-11.3653
иванием	-11.3655
▁снять	-11.3655
нке	-11.3658
▁теряют	-11.3659
▁обновля	-11.3659
▁плодов	-11.366
▁отпускает	-11.366
▁мощность	-11.3661
▁отверсти	-11.3662
▁выводит	-11.3668
▁приставк	-11.3671
▁повод	-11.3677
▁изгиб	-11.3678
▁варил	-11.3682
▁улет	-11.3685
▁поме	-11.3687
▁проигнорировал	-11.3688
▁пробежал	-11.3689
▁мишени	-11.3693
▁толст	-11.3694
▁частно	-11.3696
▁😁	-11.3697
▁спасени	-11.3699
▁прокладыва	-11.3701
▁устанавливал	-11.3706
▁патриот	-11.3711
▁стадо	-11.3712
▁справедливост	-11.3713
▁укр	-11.3715
▁вихр	-11.3719
at	-11.3722
▁серебряны	-11.3724
▁кожаны	-11.3725
▁болтаю	-11.3726
предел	-11.3726
▁испорти	-11.3733
▁фран	-11.3734
новение	-11.3734
▁кладк	-11.3734
вернул	-11.3734
▁обоз	-11.3734
▁направлении	-11.3738
вальщик	-11.3739
▁чуж	-11.374
▁соф	-11.374
▁грипп	-11.3742
▁доверяет	-11.3744
▁обратны	-11.3748
▁осад	-11.3749
▁покрывало	-11.375
вших	-11.3755
известность	-11.3758
▁эпоха	-11.376
▁набросил	-11.3761
▁греш	-11.3762
▁познакомил	-11.3763
▁паровоз	-11.3766
▁пашу	-11.3766
▁зубн	-11.3767
▁добав	-11.3767
▁вегетарианц	-11.377
▁скрыва	-11.3778
▁хакер	-11.3778
▁веществ	-11.3779
реп	-11.3783
▁лб	-11.3785
▁бунт	-11.3788
▁коллекция	-11.3793
▁похоже	-11.3795
▁сходит	-11.3796
▁осторожность	-11.3797
▁железны	-11.3797
▁границе	-11.3798
офор	-11.3799
▁искус	-11.3802
▁продукции	-11.3804
дье	-11.3804
▁аргумент	-11.3807
▁сувенир	-11.3807
▁упражнени	-11.3807
▁болгари	-11.3807
▁воздействи	-11.3807
▁коммуникаци	-11.3807
▁окулист	-11.3807
▁отапливает	-11.3807
▁отправк	-11.3807
▁переписк	-11.3807
▁персонаж	-11.3807
▁побережь	-11.3807
▁расскажет	-11.3807
▁финлянди	-11.3807
▁щекотал	-11.3807
▁инфекци	-11.3807
▁неохот	-11.3807
▁показания	-11.3807
▁постучал	-11.3807
▁несчастье	-11.3807
▁отвязал	-11.3807
▁пробивает	-11.3808
▁буфет	-11.3808
▁недобро	-11.3808
▁дуняш	-11.3808
▁будильник	-11.3808
▁трогает	-11.3808
▁признак	-11.3808
▁досуг	-11.3808
▁румын	-11.3808
▁тонкая	-11.3808
▁крепости	-11.3808
▁людях	-11.3809
▁прыгнул	-11.3809
▁бродил	-11.3809
▁нижн	-11.3809
▁испании	-11.381
▁новгород	-11.381
▁раздражение	-11.381
▁горловин	-11.3811
▁шпаг	-11.3811
▁ступ	-11.3811
▁привед	-11.3812
▁сомневаюсь	-11.3812
▁рассеива	-11.3812
▁громкий	-11.3812
▁бастер	-11.3813
▁служитель	-11.3814
▁создания	-11.3815
▁помещик	-11.3815
▁скоре	-11.3816
▁серьезны	-11.3818
▁взят	-11.3819
овке	-11.382
▁морщин	-11.3822
▁сообразительн	-11.3823
▁бледн	-11.3824
▁стажер	-11.3824
▁направо	-11.3826
▁торговал	-11.3826
▁судов	-11.3827
ложение	-11.3827
▁сообщил	-11.3829
▁транспорта	-11.383
▁правитель	-11.3831
▁сложны	-11.3834
▁фонари	-11.3836
▁счастливо	-11.3836
▁перевозк	-11.3836
▁палка	-11.3837
▁устраива	-11.384
▁администрация	-11.3842
▁выбива	-11.3847
▁кактус	-11.3847
▁создаю	-11.3848
▁размышления	-11.3848
▁энергичн	-11.3849
▁острая	-11.3849
▁коротки	-11.3852
летн	-11.3853
ферма	-11.3854
▁неба	-11.3855
▁маслом	-11.3856
половин	-11.3859
▁японск	-11.3859
▁попадает	-11.3862
▁смертны	-11.3863
▁христианств	-11.3865
▁бюро	-11.3866
очным	-11.3867
▁обуча	-11.3869
▁съезд	-11.3874
▁насчитал	-11.3879
▁данным	-11.3879
▁выбежал	-11.3881
▁алюмини	-11.3887
▁братик	-11.3887
▁осы	-11.3888
▁креп	-11.3889
ушин	-11.3893
ификаци	-11.3894
▁свидание	-11.3894
нравился	-11.3895
▁врачом	-11.3896
кроется	-11.3897
▁истекае	-11.3897
▁корд	-11.3899
▁воспитывал	-11.39
▁ложит	-11.3907
▁контейнер	-11.3909
▁перенос	-11.3909
▁пристав	-11.3911
▁тюрьме	-11.3913
▁царапал	-11.3915
▁морковк	-11.3917
берт	-11.3923
▁списке	-11.3926
▁разводил	-11.3932
▁окончание	-11.3935
▁маленьки	-11.3935
▁хот	-11.3936
▁начальство	-11.3942
▁стуле	-11.3945
▁личны	-11.3945
▁терминал	-11.3947
▁стел	-11.3948
▁чисты	-11.395
▁помеша	-11.3951
▁войск	-11.3951
▁короткие	-11.3955
▁теку	-11.3956
плеск	-11.3959
открывает	-11.396
▁удивился	-11.3963
▁учеба	-11.3966
▁ведущи	-11.3969
▁представител	-11.397
икру	-11.3971
▁преоблада	-11.3972
▁оригинальность	-11.3975
летело	-11.3976
бург	-11.3978
▁мокры	-11.3979
▁груши	-11.3979
очет	-11.398
▁вслед	-11.3984
▁завед	-11.3988
псис	-11.3989
▁90	-11.3991
отика	-11.3998
▁охлажда	-11.4
▁архитектор	-11.4
▁безработны	-11.4
▁больнице	-11.4
▁внешняя	-11.4
▁головоломки	-11.4
▁джентльмен	-11.4
▁дружелюбно	-11.4
▁инвалид	-11.4
▁преследовал	-11.4
▁происхождение	-11.4
▁репортер	-11.4
▁затруднит	-11.4
▁милицейск	-11.4
▁носорог	-11.4
▁папирос	-11.4
▁сможет	-11.4
перчатки	-11.4
▁телевидени	-11.4
▁понимание	-11.4
▁прогнал	-11.4
▁сгуща	-11.4
▁федьк	-11.4
▁тупик	-11.4
▁углов	-11.4
▁внешность	-11.4
▁дрозд	-11.4
▁уйдет	-11.4
▁колотил	-11.4
▁поглядывает	-11.4
▁сквер	-11.4
▁барьер	-11.4
▁запрещен	-11.4
▁вселенная	-11.4
▁певиц	-11.4
▁четкие	-11.4
▁природе	-11.4
▁извиня	-11.4001
▁соплив	-11.4001
▁огни	-11.4001
▁незначительно	-11.4002
▁появится	-11.4002
▁раскури	-11.4002
героев	-11.4002
▁знакомства	-11.4003
▁мухлю	-11.4003
▁сте	-11.4003
▁морозы	-11.4004
▁расписание	-11.4004
▁вещества	-11.4004
▁акб	-11.4006
грело	-11.4006
▁посла	-11.4006
▁доля	-11.4006
▁переворот	-11.4006
▁солены	-11.4007
▁коридора	-11.4008
▁розетк	-11.4008
▁ожог	-11.4009
▁дупл	-11.401
▁горячий	-11.4011
▁длительн	-11.4011
▁загоражива	-11.4013
▁уйду	-11.4013
▁приглашени	-11.4013
▁глупость	-11.4016
▁честн	-11.4019
▁жилище	-11.402
бота	-11.4022
▁зависа	-11.4022
▁дворик	-11.4024
дил	-11.4025
▁заставля	-11.4025
▁болтовня	-11.4026
▁алкогол	-11.4026
▁мохов	-11.4026
▁блюд	-11.4026
▁положения	-11.4028
▁платок	-11.4028
▁выбросил	-11.4029
ронова	-11.403
▁отводит	-11.403
▁детство	-11.4031
▁чаем	-11.4031
ашку	-11.4031
▁складывают	-11.4033
стройка	-11.4033
▁религия	-11.4033
▁бегло	-11.4034
▁рассмотри	-11.4034
▁описыва	-11.4036
▁северо	-11.4039
▁рутин	-11.404
▁дежур	-11.4045
▁гни	-11.4048
сум	-11.405
▁печень	-11.4052
▁менялся	-11.4052
▁овсян	-11.4054
▁оптическ	-11.4055
▁проще	-11.4056
▁связанны	-11.4057
▁завари	-11.4059
▁позвонила	-11.4061
▁мастерск	-11.4064
ойти	-11.4065
глаз	-11.4065
большую	-11.4065
гид	-11.4066
▁безумно	-11.4069
▁последн	-11.407
▁объяснение	-11.4071
▁натура	-11.4072
▁чистить	-11.4073
▁подушка	-11.4073
онки	-11.4073
▁тревог	-11.4082
▁большом	-11.4082
▁крутой	-11.4086
▁бразилии	-11.4087
▁составит	-11.4088
▁грустн	-11.4089
▁заходит	-11.4091
▁рен	-11.4094
свобода	-11.4096
▁комочк	-11.4098
▁манил	-11.41
теги	-11.4101
▁норк	-11.4102
▁посещает	-11.4106
▁фундамент	-11.4107
▁пьяны	-11.4109
▁рассказы	-11.4112
▁сумку	-11.4115
▁куртку	-11.4116
▁завода	-11.4118
▁велосипеда	-11.4119
▁английском	-11.4131
дуло	-11.4136
▁камне	-11.4136
▁поисков	-11.4141
▁невкусн	-11.4141
▁испански	-11.4146
ационн	-11.4148
▁плаваю	-11.415
▁оправдало	-11.4153
▁валентинк	-11.4154
▁определя	-11.4154
▁разрабатыва	-11.4157
▁писк	-11.4159
▁рабы	-11.4159
▁танцев	-11.416
▁функциональн	-11.4161
▁юридически	-11.4161
▁возражал	-11.4162
елла	-11.4163
▁километр	-11.4165
▁закрывал	-11.4166
▁программистом	-11.417
▁станк	-11.417
▁выгля	-11.4173
▁скрипт	-11.4175
▁алгебр	-11.4177
форд	-11.4177
▁журавли	-11.4177
меще	-11.418
хождение	-11.418
▁тонет	-11.4186
▁закрыло	-11.4188
▁пшен	-11.4188
▁союзник	-11.4189
ирующим	-11.4192
▁трасс	-11.4192
▁размеща	-11.4196
▁возобновил	-11.4196
мещающее	-11.4196
▁владивосток	-11.4196
▁впитывает	-11.4196
▁всплыл	-11.4196
▁жандарм	-11.4196
▁заглядыва	-11.4196
▁круглосуточно	-11.4196
▁мельничн	-11.4196
▁непрерывно	-11.4196
▁оптимизм	-11.4196
▁поглощает	-11.4196
▁подстегивает	-11.4196
▁положительно	-11.4196
▁редакци	-11.4196
▁удовольствия	-11.4196
саждает	-11.4196
▁посылк	-11.4196
▁репутаци	-11.4196
▁контакт	-11.4196
▁профиль	-11.4196
▁диспле	-11.4196
▁штаны	-11.4196
▁устриц	-11.4196
▁прятал	-11.4196
▁овраг	-11.4196
▁ангар	-11.4197
▁серьг	-11.4197
▁разгора	-11.4197
▁туфл	-11.4197
▁объявлен	-11.4197
▁нравишься	-11.4197
▁галере	-11.4197
▁дженни	-11.4198
▁хуже	-11.4198
▁разрешение	-11.4198
▁дерга	-11.4198
▁таблиц	-11.4198
▁жаба	-11.4198
▁бензо	-11.42
▁кисель	-11.42
▁стыдно	-11.42
▁громче	-11.4201
▁пятница	-11.4201
▁стир	-11.4203
▁замечание	-11.4204
▁клинт	-11.4204
▁детектив	-11.4204
▁бум	-11.4205
изированн	-11.4206
▁очищает	-11.4207
▁совесть	-11.4209
ологическ	-11.4211
▁румянце	-11.4211
▁выдавал	-11.4211
▁собира	-11.4212
▁хитры	-11.4213
▁лаком	-11.4213
▁цепочк	-11.4214
▁уважаемы	-11.4218
▁анатомическ	-11.4219
▁сходить	-11.422
▁мгл	-11.4222
▁великобритании	-11.4222
комбинат	-11.4224
поминают	-11.423
▁уровня	-11.423
▁счета	-11.4232
▁музыкально	-11.4235
▁скрадывал	-11.4235
▁рисование	-11.4236
▁стоил	-11.4237
▁украшаю	-11.4238
▁строитель	-11.4242
▁вечерне	-11.425
▁остави	-11.4252
▁топлив	-11.4254
▁дина	-11.4255
▁мышцы	-11.4257
▁отдыхал	-11.4257
▁танцует	-11.4258
отдел	-11.4259
▁вернуть	-11.426
▁испан	-11.4262
▁храбрость	-11.4263
▁скрипк	-11.4263
▁плет	-11.4268
▁лиф	-11.4275
▁поворачивает	-11.4279
▁ожидание	-11.428
сторон	-11.4281
▁шеп	-11.4282
▁зашумел	-11.4283
▁уходил	-11.4284
▁улитка	-11.4286
▁застучало	-11.4287
▁говори	-11.429
▁спешил	-11.4291
▁окружен	-11.4291
▁тревогу	-11.4291
▁коллега	-11.4294
▁победителе	-11.4296
▁проявлял	-11.43
▁назнач	-11.4303
▁зажмурился	-11.4305
▁остановилось	-11.4308
▁успокоила	-11.4308
▁предста	-11.4311
утек	-11.4314
▁деревенск	-11.4315
▁карандаши	-11.4319
▁морда	-11.432
▁тучи	-11.4323
▁доброе	-11.4324
▁батарейк	-11.4327
▁младше	-11.433
▁сторожа	-11.4333
▁дымом	-11.4335
▁иди	-11.4338
▁выступлени	-11.4338
▁шоколадны	-11.4343
▁определени	-11.4344
▁моешь	-11.4345
▁уголк	-11.4349
▁распира	-11.4352
▁тает	-11.4355
▁бессмертны	-11.4356
▁гордость	-11.4359
музык	-11.4361
▁ссор	-11.4364
▁взросл	-11.4365
играем	-11.4366
▁показывал	-11.4366
▁налет	-11.4367
дакт	-11.4367
утеш	-11.4376
▁готовят	-11.4381
реагировал	-11.4381
приложения	-11.439
▁проходимост	-11.4391
▁инвестици	-11.4392
▁раздражен	-11.4393
▁взглян	-11.4394
▁фабрика	-11.4394
▁въезд	-11.4396
▁двигателя	-11.4396
▁детстве	-11.4396
▁домочадц	-11.4396
▁желудок	-11.4396
▁завертел	-11.4396
▁заплатил	-11.4396
▁затарахтел	-11.4396
▁мандарин	-11.4396
▁наблюдения	-11.4396
▁обнажил	-11.4396
▁оттягивал	-11.4396
▁погружени	-11.4396
▁полководц	-11.4396
▁предупрежда	-11.4396
▁рябин	-11.4396
▁супермаркет	-11.4396
▁терапевт	-11.4396
▁фотоаппарат	-11.4396
▁ювелир	-11.4396
▁восприятие	-11.4396
▁карапуз	-11.4396
▁неважно	-11.4396
▁приглашаю	-11.4396
▁трагическ	-11.4396
▁дивизи	-11.4396
▁логистик	-11.4396
▁пойдем	-11.4396
▁попугай	-11.4396
▁умолк	-11.4396
▁омрачил	-11.4396
▁электричк	-11.4396
▁вальс	-11.4396
пояснение	-11.4396
▁допил	-11.4397
▁погром	-11.4397
▁знакомству	-11.4397
▁мучал	-11.4398
▁вытаскивае	-11.4398
▁маньяк	-11.4398
▁обращать	-11.44
▁облегчение	-11.44
▁нелегко	-11.44
▁растительность	-11.44
▁везет	-11.4401
▁лавк	-11.4401
ложения	-11.4403
▁лукос	-11.4406
▁празднует	-11.4407
▁куплю	-11.4407
▁томас	-11.4407
▁морозильн	-11.4408
▁почтительно	-11.4409
▁сообща	-11.4411
хэ	-11.4412
▁щенят	-11.4413
▁изысканн	-11.4414
▁нежность	-11.4414
▁алгебра	-11.4415
▁потеряет	-11.4417
нович	-11.4418
▁водителем	-11.4418
▁военные	-11.4418
▁анализиру	-11.4419
▁поддерживаю	-11.442
▁черепаш	-11.4423
▁адам	-11.4424
▁набок	-11.4424
▁мгу	-11.4424
▁тормоза	-11.4425
▁ответственность	-11.4425
вкусный	-11.4425
▁бешенство	-11.4426
▁веща	-11.4428
▁входят	-11.443
▁ссора	-11.4433
анцы	-11.4435
▁публик	-11.4435
▁офицера	-11.4435
▁информаци	-11.4436
▁пенсионерка	-11.4437
▁бывш	-11.4437
▁подобно	-11.4437
возь	-11.4439
▁отвлека	-11.444
▁перелет	-11.444
▁уровне	-11.4441
▁наоборот	-11.4442
▁мороза	-11.4445
▁итальянц	-11.4445
▁мультик	-11.4446
скакива	-11.4446
▁разговаривает	-11.4447
▁попробую	-11.445
▁мисс	-11.4451
▁шишк	-11.4451
▁независим	-11.4451
▁матушка	-11.4453
▁таблетки	-11.4454
▁охрана	-11.4455
▁восстановление	-11.4455
▁располагал	-11.4457
▁животным	-11.4458
▁предприниматель	-11.446
▁подсказыва	-11.4463
▁перебира	-11.4463
▁жертву	-11.4463
осмотр	-11.4463
▁имущество	-11.4464
▁обязанност	-11.4468
▁прямы	-11.4469
альный	-11.447
▁коридору	-11.4471
▁нрави	-11.4474
▁немецк	-11.4475
▁терял	-11.4476
хрен	-11.4476
▁выставк	-11.4478
▁выигрывал	-11.4479
▁верхушк	-11.4479
▁козел	-11.4479
▁леночк	-11.448
▁полосат	-11.4481
▁пятна	-11.4483
▁переключает	-11.4486
▁свежий	-11.449
▁активность	-11.4495
▁приготовили	-11.4497
▁пространстве	-11.4497
▁гигантск	-11.45
▁вишневы	-11.4504
▁хозяйства	-11.4505
▁подорвал	-11.4508
▁умилен	-11.4509
▁окутывает	-11.451
▁гад	-11.4511
▁колод	-11.4513
▁справляет	-11.4514
▁картофел	-11.4515
▁жид	-11.4515
▁разниц	-11.4518
▁министра	-11.4523
▁палил	-11.4524
знайка	-11.4527
получ	-11.4527
▁словар	-11.453
▁разведчики	-11.4531
онок	-11.4533
▁густо	-11.4533
пить	-11.4533
▁провож	-11.4537
▁роб	-11.4537
▁передал	-11.4538
▁наск	-11.4543
▁появ	-11.4546
▁небрежно	-11.4546
▁зарплат	-11.4549
▁подобн	-11.4554
▁продольны	-11.4554
▁успокоило	-11.4556
▁создавал	-11.4559
▁ошибся	-11.4561
▁бабы	-11.4562
ацию	-11.4564
▁подел	-11.4568
▁тяну	-11.4573
▁соедин	-11.4574
▁толсто	-11.4576
▁коктейл	-11.4579
▁удовлетворенно	-11.458
▁мягк	-11.4581
▁устойчив	-11.4583
носишь	-11.4585
▁блондинка	-11.4585
▁публикаци	-11.4588
▁ягода	-11.459
ящая	-11.4595
▁предложен	-11.4595
▁наслед	-11.4598
▁знам	-11.4598
▁дефицит	-11.46
▁невыносим	-11.46
▁аэродром	-11.46
▁биндюг	-11.46
▁выдержк	-11.46
▁голланди	-11.46
▁дровосек	-11.46
▁застрял	-11.46
▁иркутск	-11.46
▁катамаран	-11.46
▁микроволновк	-11.46
▁одобрение	-11.46
▁озноб	-11.46
▁посереди	-11.46
▁препятствия	-11.46
▁светоотражающ	-11.46
▁сообража	-11.46
▁спустя	-11.46
▁тухломон	-11.46
▁электроэнерги	-11.46
▁магнитофон	-11.46
▁отставил	-11.46
▁разыскива	-11.46
▁креветк	-11.46
▁подожгл	-11.46
▁индейц	-11.46
▁ok	-11.46
▁запясть	-11.46
▁мошенник	-11.46
▁чудесно	-11.46
▁отдельные	-11.46
▁производящ	-11.46
▁гермион	-11.46
▁муфт	-11.46
▁переезд	-11.46
▁комикс	-11.46
▁угодно	-11.46
▁покорми	-11.46
▁удостоверение	-11.4601
▁фролов	-11.4601
▁форум	-11.4601
▁знаменитост	-11.4601
▁смерч	-11.4601
▁лоскут	-11.4601
▁негативн	-11.4601
▁киви	-11.4601
▁поймали	-11.4602
▁бродяга	-11.4602
▁бетон	-11.4603
▁осени	-11.4603
▁конденсатор	-11.4604
▁свитер	-11.4604
▁чулан	-11.4604
▁купол	-11.4605
▁шерсти	-11.4607
▁рынке	-11.4607
▁менее	-11.4608
теория	-11.4609
▁луиз	-11.4609
▁независимость	-11.4613
▁случаются	-11.4613
▁спектакль	-11.4614
▁строителе	-11.4617
льский	-11.4619
▁крестьянин	-11.4619
▁проза	-11.4619
▁суше	-11.462
▁сурк	-11.4623
▁заставил	-11.4625
▁бильярд	-11.4626
▁рубах	-11.4627
▁образуют	-11.4628
▁умен	-11.463
▁нулев	-11.4631
тинг	-11.4632
▁торговы	-11.4632
▁чувствова	-11.4635
▁кофейн	-11.4638
▁эмил	-11.4638
▁милый	-11.464
▁молочны	-11.4642
▁струн	-11.4643
▁милашк	-11.4643
▁ошибает	-11.4647
▁столбик	-11.4647
▁белоруссии	-11.4647
мимо	-11.4648
ивался	-11.465
▁овоще	-11.4651
▁птичка	-11.4651
▁скотин	-11.4653
▁бедный	-11.4653
▁искин	-11.4654
▁войско	-11.4655
▁камер	-11.4655
▁ковидом	-11.4655
▁радостны	-11.4655
▁хомяков	-11.4657
▁мероприятия	-11.4659
▁оставлял	-11.466
▁удалял	-11.4661
станут	-11.4662
▁нужд	-11.4668
▁коммунист	-11.4669
▁перец	-11.4671
▁будка	-11.4672
▁разделяется	-11.4672
▁прекратилось	-11.4673
▁озера	-11.4675
▁обогрева	-11.4678
болят	-11.4681
▁кошел	-11.4683
▁кипел	-11.4683
▁рэп	-11.4684
▁ставка	-11.4684
▁отделения	-11.4685
▁худ	-11.4685
▁размывает	-11.4687
▁биолог	-11.4687
▁зеркала	-11.4689
▁сред	-11.4695
кость	-11.4695
▁жизне	-11.4698
▁подвергал	-11.4699
▁бегают	-11.47
▁слухи	-11.47
общения	-11.47
▁разрыва	-11.4702
▁груди	-11.4702
▁настал	-11.4704
▁религии	-11.4706
▁платят	-11.4707
▁содержится	-11.4708
▁управ	-11.4708
снеж	-11.4714
▁понедель	-11.4714
▁превзош	-11.4714
▁справля	-11.4715
▁зеленая	-11.4716
▁степанов	-11.4717
▁роса	-11.4717
▁надела	-11.4723
кружок	-11.4724
▁застучал	-11.4725
▁хлопнула	-11.4727
▁монет	-11.4728
▁контор	-11.4732
▁задвигал	-11.4732
▁шляпин	-11.4732
▁мид	-11.4732
▁представляют	-11.4733
▁успокоил	-11.4734
профессиональным	-11.4741
нимаю	-11.4741
▁литературны	-11.4744
▁новоросси	-11.4747
▁принимало	-11.4748
текли	-11.4749
▁клей	-11.4751
▁маленьким	-11.4751
▁листов	-11.4752
▁актриса	-11.4754
тайн	-11.4755
▁договоренност	-11.4756
h	-11.4757
текла	-11.4758
▁размышлял	-11.4761
▁гру	-11.4761
▁наблюдал	-11.4762
▁пустую	-11.4762
▁вежлив	-11.4766
▁характерн	-11.4766
▁гудел	-11.4767
▁сдавать	-11.4769
волен	-11.4771
▁подрывае	-11.4776
▁охранника	-11.4778
▁вани	-11.4784
▁грех	-11.4786
▁фасол	-11.4788
интересная	-11.4789
▁сборк	-11.479
▁машинки	-11.4794
▁поставит	-11.4794
▁давала	-11.4798
ркость	-11.4804
▁кейн	-11.4806
▁старух	-11.4807
▁нелюбим	-11.4808
z	-11.4808
▁поперхнул	-11.4808
▁автокресл	-11.4808
▁аэродинамик	-11.4808
▁вениамин	-11.4808
▁вспыхнул	-11.4808
▁ненавидел	-11.4808
▁остекление	-11.4808
▁отображает	-11.4808
▁почтальон	-11.4808
▁разозлил	-11.4808
▁смягча	-11.4808
▁устройства	-11.4808
▁флорист	-11.4808
▁шевельнул	-11.4808
▁юпитер	-11.4808
▁бенгальски	-11.4808
▁жителей	-11.4808
▁пергамент	-11.4808
▁ротмистр	-11.4808
▁юсуп	-11.4808
▁кухонн	-11.4808
▁вызван	-11.4808
▁ископаем	-11.4808
▁сражение	-11.4808
▁бетси	-11.4808
▁леонардо	-11.4808
▁удивлял	-11.4808
▁бурундук	-11.4808
▁новосибирск	-11.4808
▁навальный	-11.4808
▁дорожн	-11.4808
▁действова	-11.4808
▁покусал	-11.4808
▁грабеж	-11.4808
▁глуха	-11.4808
▁бланк	-11.4809
▁сенатор	-11.4809
▁злобно	-11.4809
▁застила	-11.4809
▁казни	-11.4809
мейстер	-11.4809
▁неделе	-11.4809
▁величайш	-11.4809
▁избавиться	-11.4809
▁зыб	-11.4809
▁здоровья	-11.481
▁озорн	-11.481
▁палитр	-11.481
▁термин	-11.481
▁мечет	-11.4811
▁больницы	-11.4811
▁пятьдесят	-11.4811
▁вспыхива	-11.4811
▁попадал	-11.4811
▁прощения	-11.4811
▁сделк	-11.4811
▁треугольник	-11.4812
▁докаж	-11.4812
▁заволокл	-11.4812
▁викторович	-11.4812
▁полощ	-11.4813
▁легче	-11.4814
▁жестокость	-11.4815
ческих	-11.4815
▁радуют	-11.4816
▁реформ	-11.4817
▁светил	-11.4817
тирания	-11.4817
▁всемирн	-11.4818
▁реальны	-11.4818
▁предназначенный	-11.4819
▁поступить	-11.482
умие	-11.4821
▁хорьк	-11.4821
▁заговорил	-11.4822
▁общественно	-11.4822
▁щелк	-11.4822
▁целует	-11.4823
▁пенсии	-11.4824
▁шагал	-11.4824
▁зуд	-11.4825
▁аманд	-11.4825
▁дисциплина	-11.4826
▁зарево	-11.4826
▁разошл	-11.4827
просить	-11.4829
▁костей	-11.4836
▁владик	-11.484
▁анд	-11.4842
▁боксер	-11.4845
th	-11.4846
▁фарш	-11.4853
▁застал	-11.4853
▁главное	-11.4854
▁парт	-11.4855
дес	-11.4859
▁посольство	-11.4862
▁нужн	-11.4863
▁соски	-11.4863
▁заседа	-11.4864
98	-11.4865
▁покупают	-11.4866
▁плаги	-11.4868
звонить	-11.4872
▁😊	-11.4873
▁облегающ	-11.4874
крут	-11.4876
▁страшный	-11.4877
▁канаде	-11.4877
фуд	-11.4878
▁кейт	-11.4879
▁редкость	-11.4879
▁бек	-11.4881
▁тюрьму	-11.4883
▁раздражает	-11.4885
энд	-11.4888
▁лис	-11.4889
▁совести	-11.4894
рник	-11.4897
▁бин	-11.4898
▁разра	-11.4898
▁темны	-11.49
▁зажмурил	-11.4904
▁шотландск	-11.4906
▁страдал	-11.4907
▁называ	-11.4907
▁шторм	-11.4907
▁одинока	-11.4911
▁размножа	-11.4913
▁соседей	-11.4913
▁соединенны	-11.4916
▁спуск	-11.4918
▁распахнуло	-11.492
лишнее	-11.4922
▁тревожно	-11.4925
▁останавливают	-11.4929
▁площадку	-11.4931
▁поворачивается	-11.4931
▁нашем	-11.4939
▁политику	-11.4942
▁лихо	-11.4942
▁убит	-11.4942
▁представля	-11.4943
▁турции	-11.4951
▁село	-11.4957
▁вечерни	-11.4958
▁создан	-11.4959
▁реку	-11.4961
агата	-11.4962
▁бомбы	-11.4963
▁крепки	-11.4964
▁беспокоил	-11.4964
▁наполнит	-11.4967
▁караул	-11.4968
▁восстанавлива	-11.4973
муля	-11.4974
иды	-11.4978
одатель	-11.4985
▁незнаком	-11.4985
▁лазер	-11.4985
▁оформлени	-11.499
▁произво	-11.4991
▁грибов	-11.4992
▁манн	-11.4992
▁улыбк	-11.4995
▁снежны	-11.4998
▁подозрева	-11.4999
▁психиатр	-11.5
▁обув	-11.5008
▁самар	-11.5009
рфоло	-11.501
▁194	-11.5011
▁папы	-11.5011
▁волгограде	-11.5017
▁пройду	-11.5017
▁руководит	-11.5018
▁пехот	-11.5021
▁тимофе	-11.5021
▁уничтожени	-11.5021
оправител	-11.5021
▁гардероб	-11.5021
▁драгоценны	-11.5021
▁затряс	-11.5021
▁инфраструктур	-11.5021
▁комбинированны	-11.5021
▁ограбил	-11.5021
▁оптимизиру	-11.5021
▁орнамент	-11.5021
▁переполнял	-11.5021
▁позавтракал	-11.5021
▁попугаев	-11.5021
▁пугачев	-11.5021
▁разворачивает	-11.5021
▁разрушение	-11.5021
▁стесня	-11.5021
▁тайноискател	-11.5021
▁шампанское	-11.5021
☺	-11.5021
😃	-11.5021
j	-11.5021
неясыть	-11.5021
▁барселон	-11.5021
▁дороже	-11.5021
▁жалко	-11.5021
▁пасмурн	-11.5021
▁прежде	-11.5021
▁расследу	-11.5021
▁фасад	-11.5021
▁шампун	-11.5021
▁заворажива	-11.5021
▁музее	-11.5021
▁оторопел	-11.5021
▁смятение	-11.5021
▁жгло	-11.5021
▁замыкает	-11.5021
▁михал	-11.5021
▁скворц	-11.5021
▁сосульк	-11.5021
▁шапочк	-11.5021
▁наслаждени	-11.5021
▁коньках	-11.5021
▁прошивк	-11.5021
▁ослепил	-11.5021
▁озаряе	-11.5021
▁бдительн	-11.5021
▁пережил	-11.5021
▁факел	-11.5021
▁оскорби	-11.5021
▁поддавал	-11.5022
▁жжет	-11.5022
▁чувак	-11.5022
▁предсказа	-11.5022
▁скопление	-11.5022
▁порядочн	-11.5022
вязывают	-11.5022
▁антилоп	-11.5022
▁мигнул	-11.5022
ry	-11.5023
▁шл	-11.5023
▁различа	-11.5023
▁решетк	-11.5024
▁поклонился	-11.5026
▁стопу	-11.5027
▁привлекают	-11.5027
▁отпечат	-11.5028
▁местности	-11.5028
▁выдвигает	-11.5029
▁кибер	-11.5029
олюбие	-11.5031
▁кроватка	-11.5034
▁стерео	-11.5035
▁вентиляционн	-11.5035
▁ногой	-11.5037
лепил	-11.504
▁нын	-11.5041
▁отодвинул	-11.5047
▁типа	-11.5048
отправлен	-11.5048
смерть	-11.5049
▁исследования	-11.5049
старшина	-11.5049
▁пропасть	-11.505
▁контролер	-11.5054
▁физика	-11.5058
обычный	-11.5058
▁подряд	-11.506
▁экономическ	-11.5061
▁осваива	-11.5065
▁подземны	-11.5067
▁покрыло	-11.5068
▁помогаешь	-11.5069
▁базар	-11.5069
▁мыльн	-11.5073
▁серебро	-11.5073
▁занимало	-11.5075
▁придаю	-11.5075
▁страда	-11.5075
▁виза	-11.508
кличка	-11.508
▁протягива	-11.5083
▁выв	-11.5084
▁фаз	-11.5086
▁индийск	-11.5088
▁карточн	-11.5088
▁катание	-11.5088
▁рома	-11.509
▁макаров	-11.509
▁астрономи	-11.5091
▁чувств	-11.5091
▁библиотека	-11.5092
▁поддерж	-11.5093
словие	-11.5096
▁регулировк	-11.51
дождать	-11.5101
▁выспа	-11.5102
▁разрешил	-11.5102
▁бродяч	-11.5104
▁местечк	-11.5107
▁хлопк	-11.5108
▁прегражда	-11.5108
▁обходишь	-11.5108
брод	-11.5108
▁схема	-11.5109
▁займу	-11.5109
клеит	-11.5112
▁японско	-11.5112
▁пыт	-11.5114
образие	-11.5117
▁превзошл	-11.5118
▁папка	-11.512
▁ценность	-11.512
▁массово	-11.5124
менялись	-11.5128
▁понимают	-11.5128
▁прилета	-11.5131
▁ленив	-11.5131
▁мука	-11.5132
▁закрывало	-11.5137
▁описание	-11.5138
▁март	-11.5139
обороны	-11.5141
инский	-11.5142
▁вологде	-11.5145
▁головно	-11.5146
вашему	-11.5148
устойчивость	-11.5148
▁аниме	-11.5149
слух	-11.5152
▁чешу	-11.5153
▁завтракал	-11.5158
▁обожгла	-11.516
телю	-11.516
▁сентябрь	-11.5166
▁рекламиру	-11.5168
▁варвара	-11.5172
▁разведка	-11.5172
▁чита	-11.5174
▁получение	-11.5177
▁клев	-11.5178
▁растоп	-11.5178
▁жало	-11.518
▁пропало	-11.5181
полотно	-11.5184
▁инструкци	-11.5186
▁волоск	-11.5188
тана	-11.5197
▁березов	-11.5198
▁семя	-11.5199
▁живой	-11.5203
летать	-11.5206
▁толя	-11.5206
окну	-11.5208
▁бред	-11.521
чесал	-11.5211
▁твори	-11.5213
▁бассейна	-11.5214
▁генеральны	-11.5215
▁джин	-11.522
▁украинц	-11.5223
▁рестораны	-11.5225
▁уступ	-11.5226
▁произносит	-11.5229
▁штурм	-11.5233
▁гимнази	-11.5234
▁бот	-11.5234
▁оптимист	-11.5235
голос	-11.5235
▁вспыхивал	-11.5236
▁вашингтон	-11.5238
▁замарайк	-11.5238
▁комендант	-11.5238
▁лихорадка	-11.5238
▁маффин	-11.5238
▁неприятельск	-11.5238
▁отклонил	-11.5238
▁переместил	-11.5238
▁поспешил	-11.5238
▁припустил	-11.5238
▁ружья	-11.5238
▁существа	-11.5238
▁элизабет	-11.5238
▁эпидеми	-11.5238
▁эрендорф	-11.5238
▁прямоугольн	-11.5238
▁сладости	-11.5238
▁эддинг	-11.5238
▁волонтер	-11.5238
▁фланг	-11.5238
▁ненавидя	-11.5238
▁головастика	-11.5238
▁одиночество	-11.5238
▁поцелу	-11.5238
▁вислоушк	-11.5238
▁покидал	-11.5238
▁наполняют	-11.5238
▁рождении	-11.5238
▁атлант	-11.5239
▁густы	-11.5239
▁обижаю	-11.5239
▁отступал	-11.5239
▁красногвардейц	-11.5239
▁сходство	-11.5239
▁диктует	-11.5239
▁осенни	-11.5239
▁чертеж	-11.5239
▁викинг	-11.5239
▁луны	-11.5239
▁угле	-11.5239
▁фанат	-11.5239
▁сестренка	-11.5239
lin	-11.5239
▁джеймс	-11.5239
▁шпион	-11.5239
▁лайнер	-11.524
▁пальца	-11.524
▁димыч	-11.524
▁капкан	-11.524
▁выстроил	-11.524
▁найдут	-11.5241
▁зажигание	-11.5241
▁дебил	-11.5241
▁сём	-11.5242
▁исследовательск	-11.5242
звоню	-11.5242
▁караван	-11.5243
графиня	-11.5244
▁отключить	-11.5244
шагов	-11.5245
▁экл	-11.5245
▁хрип	-11.5245
▁съежи	-11.5245
▁армян	-11.5246
▁поднос	-11.5246
▁шутить	-11.5247
▁гипер	-11.5247
▁маневр	-11.5247
крашен	-11.5248
▁август	-11.5249
▁скромн	-11.525
▁бочка	-11.5251
▁крис	-11.5251
▁умный	-11.5253
▁указан	-11.5253
▁кипр	-11.5254
▁слабый	-11.5255
▁дракона	-11.5256
▁напомнил	-11.5257
▁сантиметров	-11.5258
▁водоем	-11.5261
▁летели	-11.5261
урчание	-11.5262
▁называет	-11.5262
▁замерли	-11.5264
▁необычное	-11.5264
менты	-11.5266
казывает	-11.5266
▁ушиб	-11.5266
▁плетен	-11.5266
▁сыт	-11.5267
▁назначил	-11.5267
▁предположени	-11.527
▁сторожев	-11.5271
▁относят	-11.5271
▁марья	-11.5273
качественн	-11.5273
▁июль	-11.5273
▁банковск	-11.5278
▁лечения	-11.5279
▁плавание	-11.5279
▁коробочк	-11.528
▁пудел	-11.5283
ватый	-11.5283
▁подъезда	-11.5283
▁процентов	-11.5287
▁почта	-11.5287
▁турки	-11.529
▁мелочь	-11.5291
▁скоп	-11.5291
or	-11.5292
▁шумит	-11.5293
▁зажига	-11.5293
▁пирс	-11.5295
матерински	-11.5296
▁основн	-11.5297
▁получать	-11.5298
▁прилив	-11.5299
видимость	-11.53
▁мл	-11.5302
▁резал	-11.5302
оводства	-11.5304
▁передачи	-11.5307
▁окончани	-11.5313
▁тексты	-11.5316
▁софт	-11.5318
клеят	-11.5328
▁продолжит	-11.5328
▁открылась	-11.533
▁пятка	-11.5331
▁ругал	-11.5333
далека	-11.5335
▁четверть	-11.5336
▁терпе	-11.534
▁стрекоза	-11.5341
▁проявление	-11.5343
▁разгружает	-11.5349
▁логик	-11.5351
держатель	-11.5351
▁повед	-11.5354
▁дуг	-11.5355
▁осторож	-11.5357
▁монастыря	-11.5357
▁самолетов	-11.5367
моргал	-11.5369
▁решаю	-11.5369
▁трезв	-11.537
▁удерживали	-11.5372
▁владени	-11.5376
▁троиц	-11.5376
▁бойко	-11.5379
крывают	-11.5383
рисовать	-11.5386
▁известны	-11.5387
▁зеркал	-11.5387
кадров	-11.539
квалифицированны	-11.5391
▁закажи	-11.5391
▁трамва	-11.5393
▁измерение	-11.5393
пать	-11.5395
▁северов	-11.5405
▁игнорируют	-11.5407
▁мера	-11.5409
▁лучник	-11.541
ческий	-11.5411
▁посуд	-11.5413
▁башн	-11.5414
▁писа	-11.5419
▁синицы	-11.5419
▁встрети	-11.5423
риц	-11.5426
рожден	-11.5426
смеяться	-11.5433
человеч	-11.5434
▁сущност	-11.5438
леди	-11.5445
▁дева	-11.5445
пляс	-11.5447
ницу	-11.5448
▁подкова	-11.5451
▁объя	-11.5453
▁закаж	-11.5453
▁красным	-11.5456
▁троп	-11.5458
▁атрибут	-11.5461
подпятник	-11.5461
▁говядин	-11.5461
▁деклараци	-11.5461
▁десятилетия	-11.5461
▁задергал	-11.5461
▁изготавливают	-11.5461
▁инстинкт	-11.5461
▁коммерсант	-11.5461
▁лермонтов	-11.5461
▁мебели	-11.5461
▁общежити	-11.5461
▁отпугива	-11.5461
▁отсутствовал	-11.5461
▁прищурил	-11.5461
▁сапожник	-11.5461
▁скульптор	-11.5461
▁грандиозн	-11.5461
▁демонстраци	-11.5461
▁зрелищ	-11.5461
▁предыдущ	-11.5461
▁рычание	-11.5461
▁сожрал	-11.5461
▁wor	-11.5461
▁пробудил	-11.5461
▁аннушк	-11.5461
▁вытаращил	-11.5461
▁шоссе	-11.5461
▁католическ	-11.5461
▁потребление	-11.5461
▁снегурочк	-11.5461
▁шапку	-11.5461
▁попугаи	-11.5461
▁возражени	-11.5461
▁мейсон	-11.5461
▁учащенн	-11.5461
▁огнем	-11.5461
▁прищеп	-11.5461
▁прячу	-11.5461
▁резанул	-11.5461
▁выехал	-11.5461
▁горьку	-11.5461
▁фуражк	-11.5461
▁хрю	-11.5461
▁здравствуйте	-11.5461
▁васильевич	-11.5461
▁управдом	-11.5461
▁подпись	-11.5461
▁природы	-11.5461
▁покрышк	-11.5461
▁нарушаю	-11.5461
▁патруль	-11.5461
▁промыслов	-11.5462
▁клюв	-11.5462
▁переменил	-11.5463
▁разбит	-11.5463
▁уличны	-11.5463
▁кошач	-11.5463
▁светофор	-11.5464
▁трезвон	-11.5464
▁вертит	-11.5464
▁применяют	-11.5464
▁сильв	-11.5465
▁удивляю	-11.5465
▁осколк	-11.5465
▁найден	-11.5466
▁задумалась	-11.5467
▁подмен	-11.5467
скрин	-11.5467
▁явля	-11.5468
▁начес	-11.5468
▁складывал	-11.547
рисовало	-11.547
двигает	-11.5471
четов	-11.5472
▁сапер	-11.5473
▁питон	-11.5474
▁шансон	-11.5474
▁швейцари	-11.5477
▁бран	-11.548
▁тележк	-11.548
▁джейн	-11.5482
ехонький	-11.5482
▁блинчик	-11.5486
▁бытов	-11.5486
▁реставраци	-11.5486
▁отвер	-11.5487
▁трепет	-11.5488
▁рекламны	-11.549
▁замерла	-11.5491
▁остап	-11.5492
▁лишил	-11.5492
▁америке	-11.5493
▁выбил	-11.5494
альпинист	-11.5496
▁светлан	-11.5496
▁арт	-11.5499
▁пересекал	-11.5503
▁культурны	-11.5504
▁познан	-11.5505
▁гайк	-11.5509
▁развити	-11.5509
▁целы	-11.5511
▁хозяйств	-11.5517
▁напада	-11.5518
▁останавливал	-11.5519
▁общительны	-11.5522
▁поясниц	-11.5524
▁разбег	-11.5528
▁точн	-11.5529
▁похожи	-11.553
▁сократил	-11.5531
▁крошк	-11.5534
▁средни	-11.5538
▁преступления	-11.5546
▁кита	-11.5551
▁последствия	-11.5554
▁идеологи	-11.5556
▁сбежал	-11.5558
▁поднима	-11.5564
▁отел	-11.5565
▁тосклив	-11.5568
▁сотовы	-11.5571
▁планировал	-11.5572
▁разрешила	-11.5572
▁получат	-11.5575
▁рег	-11.5578
▁песен	-11.5582
зывает	-11.5589
▁мирон	-11.559
▁оформля	-11.5591
хороших	-11.5592
ходила	-11.5592
▁критика	-11.5593
▁общ	-11.5594
▁посмотри	-11.5597
▁превосходн	-11.56
▁васили	-11.5604
▁закупк	-11.5605
▁палача	-11.5608
▁высокого	-11.561
)	-11.561
▁пропаганд	-11.5618
▁игрив	-11.5619
▁ворс	-11.5621
▁мероприяти	-11.5622
▁постоя	-11.5629
▁подвижны	-11.5629
▁эмили	-11.563
▁игрушк	-11.5637
▁идеальны	-11.5648
▁подружил	-11.5648
▁жутк	-11.5649
▁темноты	-11.5651
▁княз	-11.5653
▁разрабатываю	-11.5657
рующ	-11.5663
▁тридцат	-11.5663
▁согласи	-11.5664
ксель	-11.5668
▁взятк	-11.5669
ошедши	-11.5671
▁каше	-11.5671
▁зрач	-11.5672
▁прическа	-11.5676
▁западн	-11.5676
▁приказани	-11.5678
▁игров	-11.5686
▁преодоле	-11.5687
▁голодны	-11.5687
▁выворачивает	-11.5688
q	-11.5688
▁брюнетк	-11.5688
▁булгаков	-11.5688
▁всплеснул	-11.5688
▁вытянул	-11.5688
▁завещание	-11.5688
▁заклинание	-11.5688
▁заместитель	-11.5688
▁количества	-11.5688
▁медвежон	-11.5688
▁млекопитающее	-11.5688
▁недовольство	-11.5688
▁пхукет	-11.5688
▁распределя	-11.5688
▁самоделкин	-11.5688
▁сенсор	-11.5688
▁сомнений	-11.5688
▁узнавал	-11.5688
▁услыхал	-11.5688
▁ущерб	-11.5688
😂	-11.5688
▁выносит	-11.5688
▁геракл	-11.5688
▁источал	-11.5688
▁табурет	-11.5688
▁таиланд	-11.5688
▁кикимор	-11.5688
▁пронизал	-11.5688
▁радушн	-11.5688
▁раскупают	-11.5688
▁цивилизаци	-11.5688
▁сгубил	-11.5688
▁крыши	-11.5688
▁рюмк	-11.5688
▁попугая	-11.5688
▁высадк	-11.5688
▁бархат	-11.5688
▁разыграл	-11.5688
▁областн	-11.5688
▁аудио	-11.5688
▁крепеж	-11.5688
▁выруча	-11.5688
▁коршун	-11.5688
▁пазл	-11.5688
▁уборщиц	-11.5688
▁покидаю	-11.5688
▁буйвол	-11.5688
▁забирает	-11.5688
▁свидетельство	-11.5688
▁путаница	-11.5688
▁задыха	-11.5688
▁эльф	-11.5688
▁провожает	-11.5689
▁представленн	-11.5689
▁вторично	-11.5689
▁легенд	-11.5689
▁блюдце	-11.5689
▁опутыва	-11.5689
▁бездомны	-11.5689
▁доверял	-11.5689
▁орлов	-11.5689
▁страдания	-11.569
▁чехл	-11.569
▁предательство	-11.5691
▁сироп	-11.5691
▁отвратительн	-11.5691
▁всё	-11.5691
▁вкуснее	-11.5691
▁обещаю	-11.5692
▁внешне	-11.5692
почтамт	-11.5693
▁ботино	-11.5693
▁сопротивлялся	-11.5694
▁наказыва	-11.5695
▁акси	-11.5695
▁поездк	-11.5695
▁мертвец	-11.5696
▁чаев	-11.5696
▁найду	-11.5699
▁обрет	-11.5701
▁грек	-11.5702
▁заняты	-11.5702
▁плутон	-11.5702
▁одобряю	-11.5704
▁курд	-11.5704
▁водян	-11.5705
ld	-11.5706
▁романтически	-11.5707
▁шоколадк	-11.5707
▁наследник	-11.5708
▁сдать	-11.571
▁винтовк	-11.5711
▁овчарк	-11.5712
▁обещает	-11.5714
глад	-11.5715
▁здоровый	-11.5715
пускают	-11.5717
▁сталкива	-11.5717
▁поздравил	-11.5719
▁масти	-11.5721
▁русского	-11.5724
евым	-11.5725
▁электроник	-11.5725
▁переверну	-11.5726
▁острое	-11.5727
люнул	-11.5729
▁московском	-11.5732
▁вырезал	-11.5733
▁ортопедическ	-11.5737
▁пылал	-11.5738
▁незнакомый	-11.5739
▁сделанный	-11.5739
бежала	-11.574
▁применение	-11.5742
▁передвига	-11.5744
▁обращал	-11.5745
▁выключились	-11.5745
▁сиз	-11.5745
▁желты	-11.5748
▁пела	-11.5748
▁актрис	-11.5749
▁сырое	-11.575
▁намек	-11.575
▁заполняло	-11.5751
▁награды	-11.5753
▁отставк	-11.5753
пироги	-11.5753
▁вставля	-11.5753
▁учебно	-11.5754
▁выходил	-11.5756
▁фал	-11.5758
писание	-11.5762
▁магистр	-11.5762
▁моряков	-11.5766
ерсия	-11.5766
▁вспышк	-11.5768
▁кард	-11.5769
▁пойм	-11.577
либо	-11.577
▁рассел	-11.5772
▁хвал	-11.5772
▁иголки	-11.5773
▁приводит	-11.5774
▁бодро	-11.5776
▁присяг	-11.5776
вшееся	-11.5781
▁способна	-11.5785
▁доска	-11.5785
▁суть	-11.5787
▁навык	-11.579
▁альт	-11.5791
▁успешн	-11.5792
▁коллег	-11.5794
▁копилк	-11.5796
▁павлин	-11.5797
▁скуч	-11.5797
▁согрева	-11.5798
▁сельско	-11.58
езж	-11.5804
▁бумажны	-11.5806
бываешь	-11.5812
▁неисправ	-11.5815
гонку	-11.5815
▁наташ	-11.5816
▁создава	-11.5818
▁провалива	-11.5818
▁птичк	-11.5821
▁турци	-11.5825
▁капусты	-11.5828
▁местах	-11.5831
▁окун	-11.5834
ремни	-11.5835
▁костра	-11.5835
▁совершают	-11.5836
▁техн	-11.5838
▁спасал	-11.5842
очке	-11.5844
▁свежим	-11.5844
▁окраск	-11.5846
ставка	-11.5849
двигались	-11.5853
▁воспринима	-11.5855
ального	-11.5856
▁бретел	-11.5858
▁банально	-11.5865
материал	-11.5866
звук	-11.5866
▁военн	-11.5867
▁претерпе	-11.5867
▁палатки	-11.5868
▁процент	-11.5869
▁качеств	-11.587
▁достойно	-11.5872
▁залило	-11.5873
▁белого	-11.5876
▁руле	-11.5877
▁государственны	-11.5877
▁литв	-11.5878
▁неизвестно	-11.5879
фома	-11.5881
▁соседни	-11.5885
чусь	-11.5886
▁ирланд	-11.5888
▁карател	-11.589
▁шикарно	-11.589
растают	-11.5896
любител	-11.5897
тверд	-11.5904
▁колокол	-11.5905
▁электронны	-11.5906
▁узк	-11.591
▁улыбну	-11.5912
▁наблюда	-11.5913
▁последовательно	-11.5915
▁машинк	-11.5917
▁сильным	-11.592
▁covid	-11.592
▁авиакомпани	-11.592
▁азербайджан	-11.592
▁бесследно	-11.592
▁дубравк	-11.592
▁испускае	-11.592
▁камбодж	-11.592
▁ломбард	-11.592
▁молочко	-11.592
▁напряженн	-11.592
▁обнаруживает	-11.592
▁оформить	-11.592
▁покраснел	-11.592
▁постановлени	-11.592
▁предостерега	-11.592
▁протекание	-11.592
▁прохожего	-11.592
▁раскачивал	-11.592
▁ремесло	-11.592
▁сергеевна	-11.592
▁сохранност	-11.592
▁сугроб	-11.592
▁троллейбус	-11.592
▁первоначальн	-11.592
▁пули	-11.592
▁демократ	-11.592
▁трофим	-11.592
бус	-11.592
▁будоражи	-11.592
▁кошкой	-11.592
▁солидарност	-11.592
▁кусаются	-11.5921
▁подсказк	-11.5921
▁наибольше	-11.5921
▁прицеп	-11.5921
▁русалк	-11.5921
▁вязать	-11.5921
▁завышенн	-11.5921
▁осуществлял	-11.5921
▁автоматизиру	-11.5921
▁заткнул	-11.5921
▁обложк	-11.5921
▁балерин	-11.5921
▁скакал	-11.5921
▁позор	-11.5921
▁очнул	-11.5921
▁толсты	-11.5921
▁православн	-11.5921
ty	-11.5921
▁обеспечивал	-11.5921
▁орден	-11.5921
▁фанер	-11.5922
▁наезд	-11.5922
▁инициатив	-11.5922
▁высказывания	-11.5922
▁опрашива	-11.5922
▁полтора	-11.5922
▁частично	-11.5923
▁качнул	-11.5923
▁утомил	-11.5923
▁прыгал	-11.5923
▁джанет	-11.5923
▁достанет	-11.5923
▁смелость	-11.5924
▁пересекает	-11.5924
▁вдох	-11.5926
▁грусть	-11.5926
▁ничто	-11.5926
▁поверишь	-11.5926
▁снимал	-11.5927
становилось	-11.5927
▁палк	-11.5927
▁текстильн	-11.5927
скок	-11.5927
▁меряет	-11.5927
▁коварн	-11.593
▁гонщик	-11.5931
▁мере	-11.5931
▁опухоль	-11.5932
▁шмел	-11.5932
визор	-11.5932
▁европейц	-11.5933
рублен	-11.5934
▁выключает	-11.5934
▁учение	-11.5935
высококачественн	-11.5937
▁наполняло	-11.5938
▁шлакоб	-11.5938
▁дьявол	-11.5939
▁джинс	-11.5939
кололо	-11.5939
▁завыл	-11.5945
▁тяжелая	-11.5949
▁прораб	-11.5951
христ	-11.5952
▁улыбкой	-11.5952
▁сильн	-11.5952
▁линейн	-11.5958
▁птенц	-11.596
решить	-11.596
▁возража	-11.5961
▁соединяю	-11.5962
▁заселяет	-11.5964
▁помотал	-11.5965
ближе	-11.5965
▁фигурка	-11.5969
жечь	-11.5972
▁молодц	-11.5973
▁витрины	-11.5974
▁добер	-11.5975
▁твоим	-11.5976
▁силач	-11.5978
▁курю	-11.5979
ключения	-11.5979
дувает	-11.5979
▁копье	-11.598
▁поляк	-11.5981
▁кузнечиков	-11.5982
▁переноск	-11.5983
▁прости	-11.5984
▁передают	-11.5984
▁вероятност	-11.5985
▁иглы	-11.5987
▁сорокин	-11.5988
▁вечерам	-11.5992
форт	-11.5992
▁мелодия	-11.5992
▁отечественн	-11.5992
обеспечение	-11.5997
▁дорог	-11.5998
▁сердит	-11.5998
▁рта	-11.6
▁камней	-11.6003
▁игривы	-11.6005
▁округл	-11.6007
▁периодически	-11.601
▁спалось	-11.6011
▁представлени	-11.6011
▁исправ	-11.6012
▁бесит	-11.6012
▁списк	-11.6015
▁фол	-11.6018
▁хижин	-11.6019
чуть	-11.6021
▁споры	-11.6022
▁вилли	-11.6022
▁погас	-11.6023
▁ощущаю	-11.6024
прив	-11.6025
▁ежи	-11.6026
▁контору	-11.6028
▁грязны	-11.6035
▁морковку	-11.6036
▁проживани	-11.6037
▁тани	-11.6044
▁болт	-11.6048
▁наливают	-11.6049
▁попол	-11.6051
▁лень	-11.6051
▁вспомина	-11.6051
мерно	-11.6051
▁зеленого	-11.6052
▁почтовы	-11.6052
▁опериру	-11.6061
горск	-11.6067
▁полива	-11.6075
▁отлив	-11.6075
▁навыки	-11.6079
▁призыв	-11.6083
▁послал	-11.6084
▁специальным	-11.6084
▁конде	-11.6087
▁просыпал	-11.6088
▁целом	-11.6089
▁целую	-11.6092
▁шары	-11.6105
▁секретарша	-11.6107
хание	-11.6107
стоит	-11.6109
шенин	-11.6112
▁тяжел	-11.6113
▁самогон	-11.6114
иана	-11.6115
▁уверенность	-11.6119
▁передне	-11.612
▁пролив	-11.6121
▁практику	-11.6126
▁обним	-11.6128
ложит	-11.613
▁эффективн	-11.613
▁согрел	-11.6132
▁прохожи	-11.6132
▁славянск	-11.6135
цова	-11.6136
▁перепле	-11.6138
▁надвигал	-11.6139
▁дьявола	-11.6139
кончилась	-11.6141
▁проживание	-11.6142
▁лондоне	-11.6142
выше	-11.6143
▁заговор	-11.6143
▁ветеран	-11.6145
считывает	-11.6145
мунд	-11.6145
лар	-11.615
▁слабое	-11.6151
60	-11.6152
▁августе	-11.6153
▁жестоко	-11.6153
▁мыла	-11.6154
▁положен	-11.6155
▁исчезал	-11.6155
▁нарушен	-11.6156
▁стыд	-11.6156
▁холл	-11.6157
▁юл	-11.6158
утренняя	-11.6158
▁поздоровал	-11.6159
▁страшны	-11.6159
▁герметичн	-11.6159
▁скрещива	-11.6159
▁финансирует	-11.6159
опримечательност	-11.6159
▁аспирант	-11.6159
▁воспользова	-11.6159
▁гвоздь	-11.6159
▁жизнерадостн	-11.6159
▁задолженности	-11.6159
▁нетерпение	-11.6159
▁покровительство	-11.6159
▁разгляде	-11.6159
▁расслышал	-11.6159
▁роскошь	-11.6159
▁сапожк	-11.6159
▁тряхнул	-11.6159
▁туберкулез	-11.6159
😜	-11.6159
🤓	-11.6159
▁бумажка	-11.6159
▁визжал	-11.6159
▁кефир	-11.6159
▁латви	-11.6159
▁сокровищ	-11.6159
▁организован	-11.6159
▁атлас	-11.6159
▁бревно	-11.6159
▁дерьмо	-11.6159
▁кричит	-11.6159
▁положительны	-11.6159
▁снегопад	-11.6159
▁гольф	-11.6159
▁судебны	-11.6159
▁круче	-11.6159
▁анкет	-11.6159
▁кузьм	-11.6159
▁стимулирует	-11.6159
▁рубеж	-11.6159
▁выправл	-11.6159
▁самосвал	-11.6159
▁прежни	-11.616
▁родион	-11.616
▁откровенно	-11.616
▁модуль	-11.616
селяет	-11.616
▁саманта	-11.616
▁нигде	-11.616
▁тетеньк	-11.616
▁халифат	-11.6161
▁положении	-11.6161
▁гадюк	-11.6161
▁манера	-11.6162
▁прямоух	-11.6162
▁запел	-11.6163
▁колодец	-11.6163
▁сообщить	-11.6164
▁процарапал	-11.6165
▁вектор	-11.6165
▁прекращает	-11.6167
чески	-11.6167
▁возникновени	-11.6167
▁выспал	-11.6167
▁выращивают	-11.6167
▁мудрость	-11.6167
пасс	-11.6168
▁токио	-11.6168
▁открываю	-11.617
кажу	-11.617
▁подписал	-11.6171
шней	-11.6172
▁рубил	-11.6174
▁работающи	-11.6174
▁псин	-11.6174
▁гладит	-11.6175
▁сумочка	-11.6176
▁икр	-11.6179
▁рабоче	-11.6182
▁отключ	-11.6184
▁маргарит	-11.6184
▁коктейль	-11.6185
▁заходил	-11.6185
▁зайд	-11.6187
▁прихож	-11.6187
▁возвращени	-11.619
▁пшениц	-11.619
▁визуальн	-11.6192
▁помех	-11.6193
▁посадил	-11.6194
▁бород	-11.6196
▁отливал	-11.6198
▁отнял	-11.6201
▁молоденьк	-11.6203
▁страдаю	-11.6204
▁пушк	-11.6205
▁разваливает	-11.6207
▁статистику	-11.6208
▁участка	-11.621
▁ларис	-11.6215
▁губам	-11.6215
▁огорча	-11.6221
▁леон	-11.6227
крепления	-11.6229
▁болезненно	-11.6229
▁направлени	-11.623
рдин	-11.623
▁кладов	-11.6232
▁растопил	-11.6232
▁чехии	-11.6233
▁стороной	-11.6234
рг	-11.6234
65	-11.6238
позиция	-11.6239
▁желает	-11.6243
▁брок	-11.6243
▁годов	-11.6245
легк	-11.6247
▁утренни	-11.6248
▁платеж	-11.6248
▁привлеч	-11.6249
▁ласточки	-11.625
▁объединяют	-11.6252
▁грузинск	-11.6255
плетает	-11.6261
▁модел	-11.6262
▁оборотн	-11.6264
▁экзаменам	-11.6264
▁материнск	-11.6266
▁шикарн	-11.6267
ic	-11.6268
▁грант	-11.6268
▁свинин	-11.6268
▁гигант	-11.6277
▁боковы	-11.6277
▁нота	-11.6277
▁ноль	-11.6281
▁уничтож	-11.6281
▁обманывал	-11.6282
▁составляю	-11.6286
mo	-11.6288
▁подробност	-11.6288
▁верил	-11.6301
▁бородач	-11.6301
▁блондин	-11.6303
запад	-11.6303
▁разработчиком	-11.6306
▁комары	-11.6308
▁включал	-11.6308
▁европейски	-11.631
▁навали	-11.6321
▁выбира	-11.6325
ьтер	-11.6328
чуг	-11.6332
▁отключени	-11.6332
▁иллюстраци	-11.6339
▁каролинк	-11.6345
имка	-11.6345
▁попятился	-11.6349
▁добыва	-11.6353
▁рыболов	-11.6357
▁пересек	-11.6359
▁произвед	-11.6362
▁скук	-11.6363
▁почита	-11.6366
регулируют	-11.6366
▁травы	-11.6369
прочь	-11.637
▁деревянны	-11.637
▁сосна	-11.6371
гадал	-11.6374
еньков	-11.6375
тодика	-11.6377
разрыв	-11.6378
▁чрезмерно	-11.638
▁сложные	-11.6383
▁встроенн	-11.6387
▁гражданств	-11.6387
▁шифр	-11.6389
▁пишущи	-11.639
▁озира	-11.6392
▁стату	-11.6398
▁возникал	-11.64
▁джоан	-11.6402
бен	-11.6402
▁нажимает	-11.6402
▁боеприпас	-11.6402
▁вильнюс	-11.6402
▁восторженно	-11.6402
▁выработк	-11.6402
▁гварди	-11.6402
▁заблуждение	-11.6402
▁завершение	-11.6402
▁каллиграфи	-11.6402
▁круглогодично	-11.6402
▁лаборант	-11.6402
▁милицию	-11.6402
▁освобожден	-11.6402
▁постройки	-11.6402
▁предъявля	-11.6402
▁прозвучал	-11.6402
▁разобраться	-11.6402
▁разогревает	-11.6402
▁сотворил	-11.6402
▁стюардесс	-11.6402
▁тюльпан	-11.6402
😅	-11.6402
🙃	-11.6402
▁зрителе	-11.6402
▁карусель	-11.6402
▁невежеств	-11.6402
▁ностальги	-11.6402
▁пожелани	-11.6402
▁презирае	-11.6402
▁рождеств	-11.6402
▁фальшив	-11.6402
▁министерств	-11.6402
▁озарял	-11.6402
▁духота	-11.6402
▁престол	-11.6402
▁прикусил	-11.6402
▁суслик	-11.6402
▁колодезн	-11.6402
▁морковь	-11.6403
▁бежев	-11.6403
▁утвердил	-11.6403
▁расширени	-11.6403
▁бисер	-11.6403
[...]
